{
  "</s>": 0,
  "<unk>": 1,
  ".": 2,
  ",": 3,
  "\u2581the": 4,
  "\u2581\"": 5,
  "\u2581of": 6,
  "\u2581to": 7,
  "\u2581and": 8,
  "?": 9,
  "\u2581in": 10,
  ":": 11,
  "\u2581a": 12,
  "\u2581that": 13,
  "s": 14,
  "\u2581-": 15,
  "\u2581\u0906\u0939\u0947": 16,
  "\u2581is": 17,
  "'": 18,
  "\u2581\u0906\u0923\u093f": 19,
  "\u2581for": 20,
  "\u2581his": 21,
  "\u2581I": 22,
  "\u2581you": 23,
  "\u2581be": 24,
  "\u2581with": 25,
  "\u2581\u092f\u093e": 26,
  ";": 27,
  "\u2581God": 28,
  "\u2581he": 29,
  "\u2581Jehovah": 30,
  "\u2581was": 31,
  "\u2581not": 32,
  "\u2581we": 33,
  "\u2581(": 34,
  "\u2581will": 35,
  "\u2581\u0935": 36,
  "\u2581\u0928\u093e\u0939\u0940": 37,
  "\u2581have": 38,
  "\u2581it": 39,
  ")": 40,
  "\u2581on": 41,
  "\u2581as": 42,
  "\u2581are": 43,
  "\u2581\u092e\u0940": 44,
  "\u2581\u0924\u0947": 45,
  "\u2581The": 46,
  "\u2581\u0939\u0947": 47,
  "\u2581they": 48,
  "\u2581from": 49,
  "\u2581\u0924\u094b": 50,
  "\u2581him": 51,
  "\u2581by": 52,
  "\u2581their": 53,
  "\u2581": 54,
  "\u2581all": 55,
  "\u2581\u0906\u092a\u0923": 56,
  "\u2581who": 57,
  "\u2581them": 58,
  "\u2581our": 59,
  "\u2581\u0915\u093e": 60,
  "\u2581'": 61,
  "\u091a\u094d\u092f\u093e": 62,
  "\u2581your": 63,
  "\u2581us": 64,
  "\u2581\u092a\u0923": 65,
  "\u2581can": 66,
  "\u2581this": 67,
  "\u2581\u0906\u092a\u0932\u094d\u092f\u093e": 68,
  "\u2581Jesus": 69,
  "!": 70,
  "ing": 71,
  "\u2581\u0905\u0938\u0947": 72,
  "\u2581my": 73,
  "\u2581\u0939\u094b\u0924\u0947": 74,
  "\u2581do": 75,
  "\u2581were": 76,
  "\u2581\u090f\u0915": 77,
  "\u2581or": 78,
  "\u2581\u0915\u0940": 79,
  "\u2581\u092e\u0932\u093e": 80,
  "\u2581\u0924\u0930": 81,
  "\u091a": 82,
  "\u2581at": 83,
  "\u2581what": 84,
  "\u2581had": 85,
  "\u2581one": 86,
  "\u2581\u0906\u0939\u0947\u0924": 87,
  "\u2581What": 88,
  "\u2581me": 89,
  "\u0939\u0940": 90,
  "\u2581[": 91,
  "\u2581\u0924\u094d\u092f\u093e": 92,
  "\u2581And": 93,
  "\u2581\u0924\u0941\u092e\u094d\u0939\u0940": 94,
  "\u2581Bible": 95,
  "\u2581people": 96,
  "\u2581\u0915\u093e\u092f": 97,
  "\u2581an": 98,
  "\u0932\u093e": 99,
  "\u2581\u0924\u094d\u092f\u093e\u0902\u0928\u093e": 100,
  "\u2581when": 101,
  "\u2581shall": 102,
  "\u2581\u0915\u093e\u0939\u0940": 103,
  "\u2581did": 104,
  "\u2581has": 105,
  "\u2581but": 106,
  "\u2581\u0939\u094b\u0924\u093e": 107,
  "\u2581\u0924\u0940": 108,
  "\u2581\u0924\u094d\u092f\u093e\u0932\u093e": 109,
  "\u2581\u0924\u0947\u0935\u094d\u0939\u093e": 110,
  "\u2581He": 111,
  "\u0940\u0932": 112,
  "\u091a\u093e": 113,
  "t": 114,
  "]": 115,
  "\u2581\u0938\u0930\u094d\u0935": 116,
  "\u091a\u0947": 117,
  "\u2581In": 118,
  "\u2581said": 119,
  "\u2581about": 120,
  "\u2581\u0924\u094d\u092f\u093e\u0928\u0947": 121,
  "\u2581out": 122,
  "\u0940": 123,
  "\u2581How": 124,
  "\u2581may": 125,
  "\u0942\u0928": 126,
  "\u0947": 127,
  "\u2581which": 128,
  "\u2581her": 129,
  "\u2581\u0915\u0947\u0932\u0947": 130,
  ".\"": 131,
  "\u2581would": 132,
  "\u2581time": 133,
  "\u2581\u0924\u094d\u092f\u093e\u091a\u094d\u092f\u093e": 134,
  "\u2581\u0932\u094b\u0915": 135,
  "\u2581up": 136,
  "\u091a\u0940": 137,
  "\u2581so": 138,
  "\u2581\u0906\u092a\u0932\u094d\u092f\u093e\u0932\u093e": 139,
  "\u093e": 140,
  "\u2581those": 141,
  "\u2581life": 142,
  "\u2581also": 143,
  "\u2581\u0967": 144,
  "\u093e\u091a\u094d\u092f\u093e": 145,
  "\u2581\u0939\u093e": 146,
  "\u2581man": 147,
  "\u0924": 148,
  "\u2581\u092e\u094d\u0939\u0923\u0942\u0928": 149,
  "\u2581there": 150,
  "\u2581\u0924\u0942": 151,
  "\u2581\u0939\u094b\u0924\u0940": 152,
  "\u2581\u0915\u0947\u0932\u0940": 153,
  "\u2581\u0939\u0940": 154,
  "\u2581We": 155,
  "\u2581\u090f\u0915\u093e": 156,
  "\u0928\u0947": 157,
  "\u2581\u0924\u0941\u092e\u094d\u0939\u093e\u0932\u093e": 158,
  "\u2581\u0915\u093e\u0930\u0923": 159,
  "\u2581\u092e\u0917": 160,
  "\u2581\u0915\u0930\u0942": 161,
  "\u2581\u0915\u0947\u0932\u093e": 162,
  "\u2581more": 163,
  "\u2581no": 164,
  "\u2581into": 165,
  "\u2581\u091c\u0947": 166,
  "\u2581day": 167,
  "\u2581unto": 168,
  "\u2581good": 169,
  "\u2581things": 170,
  "\u2581\u0928": 171,
  "\u2581It": 172,
  "\u25811": 173,
  "\u2581\u0924\u094d\u092f\u093e\u0902\u0928\u0940": 174,
  "\u2581\u0936\u0915\u0924\u094b": 175,
  "\u2581/": 176,
  "\u2581how": 177,
  "\u2581\u0915\u093f\u0902\u0935\u093e": 178,
  "\u2581For": 179,
  "\u2581help": 180,
  "\u2581\u092e\u093e\u091d\u094d\u092f\u093e": 181,
  "\u2581should": 182,
  "\u2581some": 183,
  "\u2581\u0935\u093f\u0936\u094d": 184,
  "\u2581\u0932\u094b\u0915\u093e\u0902\u0928\u093e": 185,
  "\u2581if": 186,
  "\u2581A": 187,
  "\u2581been": 188,
  "\u2581even": 189,
  "\u2581many": 190,
  "\u2581make": 191,
  "\u2581love": 192,
  "\u2581way": 193,
  "\u2581children": 194,
  "\u2581But": 195,
  "\u2581\u0926\u0947\u0935": 196,
  "\u2581They": 197,
  "\u2581\u0924": 198,
  "\u2581does": 199,
  "\u2581\u0926\u0947\u0935\u093e\u091a\u094d\u092f\u093e": 200,
  "\u2581such": 201,
  "ed": 202,
  "\u2581work": 203,
  "\u2581come": 204,
  "\u2581made": 205,
  "\u2581\u0915\u0930\u093e": 206,
  "\u2581Israel": 207,
  "\u2581like": 208,
  "\u2581\u092a\u093e\u0939\u093f\u091c\u0947": 209,
  "\u093e\u091a\u0947": 210,
  "\u2581\u0915\u0930\u0924\u094b": 211,
  "\u2581these": 212,
  "\u2581\u0915\u0930\u0924": 213,
  "\u2581\u0935\u094d\u092f\u0915\u094d": 214,
  "\u2581Paul": 215,
  "\u2581\u092e\u0926\u0924": 216,
  "\u2581other": 217,
  "\u2581When": 218,
  "\u2581than": 219,
  "\u2581\u0906\u0932\u0947": 220,
  "\u2581she": 221,
  "\u2581earth": 222,
  "\u2581because": 223,
  "\u2581before": 224,
  "a": 225,
  "\u2581You": 226,
  "\u2581Why": 227,
  "\u2581\u0968": 228,
  "\u2581world": 229,
  "\u2581know": 230,
  "\u2581\u0906\u092e\u094d\u0939\u0940": 231,
  "\u2581LORD": 232,
  "\u2581\u092e\u094d\u0939\u0923\u091c\u0947": 233,
  "\u093e\u091a\u093e": 234,
  "\u2581This": 235,
  "\u2581\u0924\u094d\u092f\u093e\u0902\u091a\u094d\u092f\u093e": 236,
  "\u2581\u092e\u094d\u0939\u0923\u093e\u0932\u093e": 237,
  "\u2581men": 238,
  "\u2581Christ": 239,
  "\u2581\u0917\u094b\u0937\u094d\u091f\u0940": 240,
  "\u2581\u092f\u0939\u094b\u0935\u093e": 241,
  "\u2581years": 242,
  "\u2581\u091d\u093e\u0932\u093e": 243,
  "\u2581could": 244,
  "\u2581first": 245,
  "\u2581over": 246,
  "\u2581king": 247,
  "\u2581spirit": 248,
  "\u2581\u0905\u0938\u0947\u0932": 249,
  "\u2581\u092c\u093e\u092f\u092c\u0932": 250,
  "\"": 251,
  "\u093e\u091a\u0940": 252,
  "\u2581Christian": 253,
  "\u2581\u0969": 254,
  "\u2581came": 255,
  "\u2581against": 256,
  "\u2581house": 257,
  "\u2581heart": 258,
  "ly": 259,
  "\u2581\u0905\u0936\u093e": 260,
  "\u0938": 261,
  "n": 262,
  "\u2581see": 263,
  "\u2581Tom": 264,
  "\u2581\u0935\u093f\u091a\u093e\u0930": 265,
  "-": 266,
  "\u2581If": 267,
  "\u2022": 268,
  "\u2581Christians": 269,
  "\u2581\u0906\u0924\u093e": 270,
  "\u2581\u0924\u094d\u092f\u093e\u091a\u0947": 271,
  "\u2581David": 272,
  "\u2581son": 273,
  "\u2581Witnesses": 274,
  "\u2581need": 275,
  "\u2581name": 276,
  "\u2581others": 277,
  "\u2581\u0928\u093e\u0939\u0940\u0924": 278,
  "\u2581Kingdom": 279,
  "\u2581then": 280,
  "\u2581\u0924\u0941\u092e\u091a\u094d\u092f\u093e": 281,
  "\u2581says": 282,
  "\u2581faith": 283,
  "\u2581take": 284,
  "\u2581\u092f\u0939\u094b\u0935\u093e\u091a\u094d\u092f\u093e": 285,
  "\u2581go": 286,
  "\u2581\u0939\u094b\u0908\u0932": 287,
  "\u2581\u096a": 288,
  "\u2581\u0916\u0942\u092a": 289,
  "\u2581\u0939\u094b\u0924\u094b": 290,
  "\u2581As": 291,
  "\u2581\u0926\u093f\u0932\u0947": 292,
  "\u2581\u0905\u0938\u093e": 293,
  "\u2581Yahweh": 294,
  "\u0915": 295,
  "\u2581page": 296,
  "\u2581\u0924\u0941\u0932\u093e": 297,
  "\u2581\u092f\u0947\u0936\u0942": 298,
  "\u2581after": 299,
  "\u2581upon": 300,
  "\u2581being": 301,
  "\u2581\u092e\u094d\u0939\u091f\u0932\u0947": 302,
  "\u2581congregation": 303,
  "\u2581only": 304,
  "\u2581\u092a\u0930\u092e\u0947\u0936\u094d\u0935\u0930": 305,
  "\u2581\u092f\u0947\u0936\u0942\u0928\u0947": 306,
  "\u2581\u0916\u094d\u0930\u093f\u0938\u094d\u0924\u0940": 307,
  "\u2581own": 308,
  "\u2581must": 309,
  "\u2581\u096b": 310,
  "\u2581two": 311,
  "\u2581now": 312,
  "the": 313,
  "\u2581\u0930\u093e\u091c\u093e": 314,
  "\u2581thou": 315,
  "\u2581give": 316,
  "\u2581words": 317,
  "\u093e\u0932\u093e": 318,
  "d": 319,
  "\u094d\u092f\u093e": 320,
  "\u2581\u0967\u096b": 321,
  "\u2581\u096c": 322,
  "\u2581\u0905\u0936\u0940": 323,
  "\u2581spiritual": 324,
  "\u2581example": 325,
  "\u2581any": 326,
  "\u2581\u0907\u0924\u0930": 327,
  "\u2581family": 328,
  "b": 329,
  "\u2581\u0938\u0947\u0935\u093e": 330,
  "\u2581\u0915\u093f\u0924\u0940": 331,
  "\u2581\u0905\u0938\u0932\u0947\u0932\u094d\u092f\u093e": 332,
  "\u2581great": 333,
  "\u2581its": 334,
  "\u2581\u091d\u093e\u0932\u0947": 335,
  "\u2581\u092a\u093e\u0928\u093e\u0902\u0935\u0930": 336,
  "\u093f\u0924": 337,
  "\u2581\u0906\u092a\u0932\u093e": 338,
  "e": 339,
  "\u2581\u0915\u0930\u0924\u093e\u0924": 340,
  "\u2581\u0915\u0930\u0942\u0928": 341,
  "\u2581\u0906\u092a\u0932\u0947": 342,
  "\u2581say": 343,
  "\u2581hand": 344,
  "\u2581thy": 345,
  "\u2581\u092a\u094d\u0930\u0947\u092e": 346,
  "\u2581\u0906\u0932\u093e": 347,
  "\u093e\u0928\u0947": 348,
  "\u2581well": 349,
  "\u2581down": 350,
  "\u2581let": 351,
  "\u2581\u0924\u094d\u092f\u093e\u091a\u0940": 352,
  "\u2581every": 353,
  "\u2581might": 354,
  "\u0935\u0930": 355,
  "\u2581\u0924\u094d\u092f\u093e\u091a\u093e": 356,
  "\u2581\u0906\u091c": 357,
  "\u2581\u0905\u0928\u0947\u0915": 358,
  "\u2581\u092a\u0942\u0930\u094d\u0923": 359,
  "\u2581\u091c\u0930": 360,
  "\u2581went": 361,
  "\u2581That": 362,
  "\u2581\u0935\u093e\u0938": 363,
  "\u2581through": 364,
  "\u2581\u0967\u0966": 365,
  "\u2581\u091a\u093f\u0924\u094d\u0930": 366,
  "\u2581become": 367,
  "\u2581\u0907\u0938\u094d\u0930\u093e\u090f\u0932": 368,
  "\u2581death": 369,
  "\u2581\u0924\u094d\u092f\u093e\u092e\u0941\u0933\u0947": 370,
  "\u2581very": 371,
  "\u2581\u0926\u0947\u0935\u093e\u0928\u0947": 372,
  "\u2581land": 373,
  "\u2581another": 374,
  "\u2581Then": 375,
  "\u2581true": 376,
  "\u2581\u0915\u0930\u0923\u094d\u092f\u093e\u0938\u093e\u0920\u0940": 377,
  "\u2581\u096d": 378,
  "\u2581away": 379,
  "\u2581So": 380,
  "\u2581\u0967\u0968": 381,
  "\u2581ones": 382,
  "\u2581Do": 383,
  "\u2581am": 384,
  "\u092e\u0927\u094d\u092f\u0947": 385,
  "\u2581\u0924\u0941\u091d\u094d\u092f\u093e": 386,
  "\u2581\u0915\u093e\u092e": 387,
  "\u2581\u092a\u094d\u0930\u092f\u0924\u094d\u0928": 388,
  "\u2581put": 389,
  "\u2581\u091c\u0940\u0935\u0928": 390,
  "\u2581\u0915\u0930\u0923\u094d\u092f\u093e\u0924": 391,
  "\u2581\u092a\u0930\u0902\u0924\u0941": 392,
  "\u2581\u0906\u0923\u0916\u0940": 393,
  "\u2581just": 394,
  "\u2581new": 395,
  "\u2581\u092a\u0935\u093f\u0924\u094d\u0930": 396,
  "\u0902": 397,
  "\u2581\u096e": 398,
  "\u2581\u091c\u094d\u092f\u093e": 399,
  "\u2581\u092e\u093e\u0939\u0940\u0924": 400,
  "\u2581\u092a\u094d\u0930\u0936\u094d": 401,
  "\u2581place": 402,
  "\u2581days": 403,
  "\u2581word": 404,
  "\u2581himself": 405,
  "\u2581thee": 406,
  "\u2581much": 407,
  "\u2581\u092a\u094d\u0930\u093e\u0930\u094d\u0925\u0928\u093e": 408,
  "\u2581\u092e\u093e\u091d\u093e": 409,
  "\u2581She": 410,
  "\u2581\u0905\u092d\u094d\u092f\u093e\u0938": 411,
  "\u2581\u0967\u0967": 412,
  "\u2581\u096f": 413,
  "\u2581\u0924\u093f\u0932\u093e": 414,
  "\u2581among": 415,
  "\u2581truth": 416,
  "\u2581\u0938\u093e\u0902\u0917\u093f\u0924\u0932\u0947": 417,
  "\u2581\u0915\u0930\u0923\u0947": 418,
  "\u2581\u091c\u094b": 419,
  "\u2581ye": 420,
  "\u2581\u0906\u092a\u0932\u0940": 421,
  "\u2581\u091d\u093e\u0932\u0940": 422,
  "\u2581where": 423,
  "\u2581found": 424,
  "\u2581saying": 425,
  "\u2581*": 426,
  "\u2581brothers": 427,
  "\u2581want": 428,
  "\u2581\u092a\u0941\u0928\u094d\u0939\u093e": 429,
  "\u25812": 430,
  "\u25814": 431,
  "\u2581\u0930\u093e\u091c\u094d\u092f": 432,
  "\u2581\u0906\u0939\u094b\u0924": 433,
  "\u2581\u0924\u0930\u0940": 434,
  "I": 435,
  "\u2581keep": 436,
  "\u2581\u0905\u0938\u0924\u0947": 437,
  "\u2581father": 438,
  "\u2581\u092f\u0939\u094b\u0935\u093e\u0928\u0947": 439,
  "\u2581\u0926\u094b\u0928": 440,
  "\u2581\u092f\u0947\u0908\u0932": 441,
  "\u2581young": 442,
  "\u2581Lord": 443,
  "\u2581times": 444,
  "\u2581\u0915\u0938\u0947": 445,
  "\u2581\u092e\u0941\u0932\u0917\u093e": 446,
  "\u2581\u0926\u0947\u0916\u0940\u0932": 447,
  "\u2581\u0917\u094b\u0937\u094d\u091f": 448,
  "\u0938\u093e\u0920\u0940": 449,
  "\u25815": 450,
  "\u2581\u0907\u091a\u094d\u091b\u093e": 451,
  "\u2581\u0905\u0938\u0902": 452,
  "\u2581\u0935\u093e\u0908\u091f": 453,
  "\u2581\u0915\u094b\u0923\u0924\u094d\u092f\u093e": 454,
  "\u2581find": 455,
  "\u2581right": 456,
  "\u0928": 457,
  "\u2581Word": 458,
  "\u2581set": 459,
  "\u2581\u092e\u093e\u091d\u0947": 460,
  "\u2581John": 461,
  "\u2581today": 462,
  "\u2581\u0906\u0928\u0902\u0926": 463,
  "\u2581\u092a\u094d\u0930\u0924\u094d\u092f\u0947\u0915": 464,
  "\u2581\u0906\u0932\u0940": 465,
  "\u2581\u0928\u0915\u093e": 466,
  "\u2581To": 467,
  "\u2581called": 468,
  "\u093e\u0924": 469,
  "\u2581Satan": 470,
  "\u2581\u0967\u0969": 471,
  "\u0916": 472,
  "\u2581\u0932\u094b\u0915\u093e\u0902\u0928\u0940": 473,
  "\u2581\u091c\u0947\u0935\u094d\u0939\u093e": 474,
  "\u2581person": 475,
  "\u2581study": 476,
  "\u2581\u092f\u094b\u0917\u094d\u092f": 477,
  "\u2581\u0939\u094b\u090a": 478,
  "\u2581whom": 479,
  "\u2581city": 480,
  "\u2581\u0926\u093f\u0932\u0940": 481,
  "\u0932\u0947": 482,
  "\u2581\u0906\u092e\u094d\u0939\u093e\u0932\u093e": 483,
  "\u2581parents": 484,
  "\u2581took": 485,
  "\u2581\u0909\u0924\u094d\u0924\u0930": 486,
  "\u2581\u0926\u093f\u0932\u093e": 487,
  "\u2581\u0928\u093e\u0935": 488,
  "\u2581part": 489,
  "\u2581\u0915\u094b\u0923\u0940": 490,
  "\u2581\u091f\u0949\u092e": 491,
  "\u2581\u0967\u096a": 492,
  "\u2581book": 493,
  "\u2581\u0905\u0930\u094d\u0925": 494,
  "\u2581holy": 495,
  "\u2581same": 496,
  "\u2581year": 497,
  "\u0936\u0940": 498,
  "\u2581\u092e\u093e\u091d\u0940": 499,
  "\u2581\u0936\u0915\u0924": 500,
  "\u2581three": 501,
  "\u2581most": 502,
  "\u2581\u0915\u0930\u0923\u094d\u092f\u093e\u0938": 503,
  "\u2581\u0917\u0930\u091c": 504,
  "\u2581\u0926\u0947\u0935\u093e\u091a\u0947": 505,
  "\u2581under": 506,
  "\u2581Father": 507,
  "\u2581show": 508,
  "\u2581use": 509,
  "\u2581Jerusalem": 510,
  "\u2581\u0924\u0938\u0947\u091a": 511,
  "\u2581gave": 512,
  "\u2581\u0967\u096d": 513,
  "\u0932\u094d\u092f\u093e": 514,
  "\u2581Picture": 515,
  "\u2581\u0906\u0927\u094d\u092f\u093e\u0924\u094d\u092e\u093f\u0915": 516,
  "\u2581wife": 517,
  "\u2581live": 518,
  "\u2581home": 519,
  "\u2581\u0924\u094d\u092f\u093e\u0902\u091a\u0940": 520,
  "\u2581end": 521,
  "\u2581\u092a\u094d\u0930\u0915\u093e\u0930\u0947": 522,
  "\u2581long": 523,
  "\u2581given": 524,
  "\u2581\u0905\u0917\u0926\u0940": 525,
  "\u2581each": 526,
  "\u2581\u0967\u096c": 527,
  "\u2581learn": 528,
  "\u0932\u0940": 529,
  "\u2581why": 530,
  "\u2581\u0935\u0947\u0933": 531,
  "\u2581\u092f\u0947\u0925\u0947": 532,
  "\u2581apostle": 533,
  "\u2581servants": 534,
  "\u2581One": 535,
  "\u2581\u0936\u0915\u0924\u0947": 536,
  "\u2581\u0928\u092f\u0947": 537,
  "\u2581feel": 538,
  "\u2581\u091c\u093e\u0938\u094d\u0924": 539,
  "\u2581\u0928\u0902\u0924\u0930": 540,
  "\u2581\u092f\u093e\u091a\u093e": 541,
  "\u2581\u0917\u0947\u0932\u0947": 542,
  "\u2581\u0924\u094d\u092f\u093e\u0902\u091a\u093e": 543,
  "m": 544,
  "\u2581sons": 545,
  "\u2581\u0939\u094b\u0924": 546,
  "\u2581\u0915\u0930\u0923\u094d\u092f\u093e\u091a\u0940": 547,
  "\u2581Peter": 548,
  "\u2581told": 549,
  "\u2581\u0905\u0927\u093f\u0915": 550,
  "\u2581\u0967\u096e": 551,
  "\u2581faithful": 552,
  "\u2581\u0939\u094b\u0924\u0902": 553,
  "\u2581Is": 554,
  "\u2581Moses": 555,
  "\u2581wrote": 556,
  "\u2581However": 557,
  "\u2581never": 558,
  "\u2581There": 559,
  "\u2581\u0924\u092f\u093e\u0930": 560,
  "\u2581bring": 561,
  "\u2581\u0924\u094d\u092f\u093e\u0902\u091a\u0947": 562,
  "\u2581used": 563,
  "\u2581means": 564,
  "\u2581back": 565,
  "\u2581\u0917\u0947\u0932\u093e": 566,
  "\u2581\u092e\u094d\u0939\u0923\u0924\u094b": 567,
  "\u2581\u0928\u093e\u0936": 568,
  "\u093e\u0902\u0928\u093e": 569,
  "\u2581though": 570,
  "\u2581brought": 571,
  "\u2581\u0935\u091a\u0928": 572,
  "\u2581\u0924\u0947\u0925\u0947": 573,
  "\u2581worship": 574,
  "\u2581Let": 575,
  "\u2581\u0938\u0930\u094d\u0935\u093e\u0924": 576,
  "\u2581\u0906\u091c\u094d\u091e\u093e": 577,
  "\u2581old": 578,
  "\u2581\u0915\u0926\u093e\u091a\u093f\u0924": 579,
  "\u2581themselves": 580,
  "\u2581became": 581,
  "\u2581disciples": 582,
  "\u2581get": 583,
  "\u2581read": 584,
  "\u2581ministry": 585,
  "\u2581\u092b\u093e\u0930": 586,
  "\u2581\u0915\u0930\u0940\u0924": 587,
  "\u2581\u0926\u093f\u0935\u0938": 588,
  "\u2581serve": 589,
  "\u2581human": 590,
  "\u2581important": 591,
  "\u2581ways": 592,
  "\u2581without": 593,
  "\u2581nor": 594,
  "\u2581\u092f\u093e\u091a\u0940": 595,
  "\u2581\u0916\u0930\u0947": 596,
  "\u2581\u0936\u0915\u0924\u093e\u0924": 597,
  "\u2581peace": 598,
  "\u0915\u0921\u0947": 599,
  "\u2581service": 600,
  "\u2581\u0915\u0947\u0935\u0933": 601,
  "\u2581\u0936\u092c\u094d\u0926": 602,
  "\u2581\u0906\u092e\u091a\u094d\u092f\u093e": 603,
  "\u2581\u0926\u0947\u0924\u094b": 604,
  "\u2581course": 605,
  "\u2581too": 606,
  "\u2581\u0967\u096f": 607,
  "\u2581power": 608,
  "\u2581eyes": 609,
  "\u2581done": 610,
  "\u2581together": 611,
  "\u2581again": 612,
  "\u2581\u092a\u093e\u0939\u093e": 613,
  "\u2581brother": 614,
  "\u2581After": 615,
  "\u092e\u0940": 616,
  "\u2581tell": 617,
  "\u2581\u0915\u0930": 618,
  "\u2581mind": 619,
  "\u2581\u0915\u0930\u093e\u092f\u0932\u093e": 620,
  "\u2581news": 621,
  "\u2581\u092a\u0941\u0922\u0947": 622,
  "\u25813:": 623,
  "\u2581hope": 624,
  "\u2581still": 625,
  "\u2581\u0935\u0947\u0933\u0940": 626,
  "al": 627,
  "\u2581My": 628,
  "\u258115": 629,
  "\u2581\u0905\u0938\u0924\u093e\u0928\u093e": 630,
  "\u2581\u0916\u094d\u0930\u093f\u0936\u094d": 631,
  "?\"": 632,
  "\u2581saw": 633,
  "\u2581speak": 634,
  "E": 635,
  "\u2581both": 636,
  "\u2581\u092a\u0930\u0924": 637,
  "\u2581\u092d\u093e\u0917": 638,
  "\u2581\u0926\u0947\u0935\u093e\u091a\u0940": 639,
  "\u2581Some": 640,
  "\u2581\u0915\u093e\u0930\u094d\u092f": 641,
  "\u2581At": 642,
  "\u2581\u0906\u0939\u0947\u0938": 643,
  "\u2581knowledge": 644,
  "\u2581\u0935\u093e\u091f\u0924\u0947": 645,
  "\u2581preaching": 646,
  "\u2581\u0926\u0947\u0935\u093e\u0932\u093e": 647,
  "\u2581\u0932\u093e\u0917\u0932\u0947": 648,
  "\u2581\u0968\u0966": 649,
  "S": 650,
  "\u2581\u0932\u0915\u094d\u0937": 651,
  "y": 652,
  "\u2581toward": 653,
  "\u2581\u0915\u0930\u0923\u093e\u0931\u094d": 654,
  "...": 655,
  "\u093e\u0902\u091a\u093e": 656,
  "\u2581\u0915\u0930\u0924\u093e": 657,
  "\u2581\u091c\u093e\u0924\u0947": 658,
  "\u2581mother": 659,
  "\u2581By": 660,
  "\u2581\u092f\u0939\u094b\u0935\u093e\u0932\u093e": 661,
  "\u2581began": 662,
  "\u2581off": 663,
  "\u092a\u093e\u0938\u0942\u0928": 664,
  "\u2581face": 665,
  "\u2581able": 666,
  "\u2581\u091a\u093e\u0902\u0917\u0932\u0947": 667,
  "\u2581doing": 668,
  "\u2581often": 669,
  "\u2581His": 670,
  "\u2581\u092f\u093e\u0902\u0928\u093e": 671,
  "\u2581full": 672,
  "\u2581sent": 673,
  "\u2581sin": 674,
  "\u2581Who": 675,
  "\u2581heaven": 676,
  "\u2581No": 677,
  "\u2581\u0935\u093e\u0938\u0942": 678,
  "\u2581therefore": 679,
  "\u2581\u0915\u0938\u093e": 680,
  "\u2581\u092a\u093e\u092a": 681,
  "\u2581\u0938\u0902\u0926\u0947\u0936": 682,
  "\u2581\u0915\u0947\u0932\u0947\u0932\u094d\u092f\u093e": 683,
  "\u2581\u092f\u0939\u094b\u0935\u093e\u091a\u0947": 684,
  "\u2581left": 685,
  "\u2581\u0935\u0930": 686,
  "\u25812:": 687,
  "\u2581\u091c\u093e\u090a": 688,
  "\u2581\u0918\u0947\u090a\u0928": 689,
  "\u2581C": 690,
  "\u2581Son": 691,
  "\u2581\u0926\u094d\u092f\u093e": 692,
  "\u2581living": 693,
  "\u2581view": 694,
  "\u2581\u0906\u0939\u093e\u0924": 695,
  "\u2581\u092a\u0930\u092e\u0947\u0936\u094d\u0935\u0930\u093e\u0928\u0947": 696,
  "\u2581woman": 697,
  "er": 698,
  "\u2581\u0905\u0938\u0924\u094b": 699,
  "\u2581Now": 700,
  "\u2581heard": 701,
  "\u2581hath": 702,
  "\u2581Judah": 703,
  "\u092f": 704,
  "\u2581\u0924\u093f\u0928\u0947": 705,
  "\u091a\u0902": 706,
  "\u2581consider": 707,
  "\u2581\u091c\u093e\u0908\u0932": 708,
  "\u2581yet": 709,
  "th": 710,
  "\u2581loving": 711,
  "\u2581always": 712,
  "\u2581while": 713,
  "\u2581law": 714,
  "\u2581wicked": 715,
  "\u2581\u092e\u093e\u0930\u094d\u0917": 716,
  "\u2581\u0915\u0930\u0923\u094d\u092f\u093e\u091a\u093e": 717,
  "\u2581don": 718,
  "\u2581according": 719,
  "\u2581during": 720,
  "\u2581Our": 721,
  "\u2581\u0924\u0940\u0928": 722,
  "\u2581\u0924\u093f\u091a\u094d\u092f\u093e": 723,
  "\u2581\u0905\u0938\u0924\u093e\u0924": 724,
  "\u2581\u0909\u092a\u092f\u094b\u0917": 725,
  "\u2581\u092f\u0947\u0924": 726,
  "\u2581\u0936\u0915\u0924\u093e": 727,
  "\u2581\u0915\u094b\u0923\u0924\u0940": 728,
  "\u2581\u0915\u0936\u0940": 729,
  "\u2581\u092a\u094c\u0932\u093e\u0928\u0947": 730,
  "\u2581\u0968\u0968": 731,
  "\u2581\u090f\u0916\u093e\u0926\u094d\u092f\u093e": 732,
  "\u2581\u091c\u093e\u0924": 733,
  "\u2581making": 734,
  "\u2581child": 735,
  "\u2581O": 736,
  "\u2581\u0938\u0924\u094d\u092f": 737,
  "\u2581\u092f\u0939\u094b\u0935\u093e\u091a\u0940": 738,
  "\u2581think": 739,
  "\u2581nations": 740,
  "\u2581Yes": 741,
  "\u2581forth": 742,
  "\u093e\u0902\u091a\u094d\u092f\u093e": 743,
  "\u2581later": 744,
  "\u2581\u092f\u093e\u0902\u0928\u0940": 745,
  "\u2581\u092e\u0927\u094d\u092f\u0947": 746,
  "\u2581\u092f\u0947\u0936\u0942\u091a\u094d\u092f\u093e": 747,
  "\u2581On": 748,
  "\u2581\u0935\u093e\u091a\u093e": 749,
  "\u2581\u0926\u0947\u090a": 750,
  "\u2581All": 751,
  "\u2581having": 752,
  "\u2581joy": 753,
  "\u2581\u092c\u093e\u0939\u0947\u0930": 754,
  "\u2581\u0938\u094d\u0935\u0924": 755,
  "\u2581Psalm": 756,
  "\u2581ever": 757,
  "\u2581asked": 758,
  "\u2581blood": 759,
  "\u2581\u0938": 760,
  "\u093e\u0935\u0930": 761,
  "\u2581fellow": 762,
  "\u2581between": 763,
  "\u2581\u0915\u0930\u0923\u093e\u0930": 764,
  "\u2581\u0926\u093f\u0935\u0936\u0940": 765,
  "re": 766,
  "\u2581\u091c\u0940\u0935\u0928\u093e\u0924": 767,
  "\u2581\u0924\u0941\u092e\u091a\u093e": 768,
  "\u2581King": 769,
  "\u2581With": 770,
  "\u2581\u0926\u093f\u0938": 771,
  "\u2581\u0905\u0924\u093f\u0936\u092f": 772,
  "\u2581\u092f\u093e\u092e\u0941\u0933\u0947": 773,
  "\u2581\u0938\u093e\u0915\u094d\u0937\u0940\u0926\u093e\u0930": 774,
  "\u2581\u0968\u096a": 775,
  "\u2581\u0915\u093e\u0933\u091c\u0940": 776,
  "\u2581water": 777,
  "\u2581\u0915\u0930\u0940\u0932": 778,
  "\u2581\u0939\u094d\u092f\u093e": 779,
  "\u25811:": 780,
  "\u2581\u0928\u093f\u0930\u094d\u092e\u093e\u0923": 781,
  "\u2581\u092f\u0947\u0924\u0947": 782,
  "\u2581\u092a\u093e\u0939\u093f\u0932\u0947": 783,
  "\u093e\u0902\u091a\u0940": 784,
  "\u2581\u0928\u0935\u0940\u0928": 785,
  "\u092c": 786,
  "\u2581\u0915\u0930\u0940\u0928": 787,
  "\u2581\u092a\u0930\u093f\u0923\u093e\u092e": 788,
  "\u2581\u0928\u0947\u0939\u092e\u0940": 789,
  "\u2581\u092f\u093e\u091a": 790,
  "\u2581wisdom": 791,
  "\u2581look": 792,
  "\u2581\u0968\u0967": 793,
  "\u2581\u0909\u0926\u093e\u0939\u0930\u0923": 794,
  "\u2581\u0926\u0942\u0930": 795,
  "\u2581\u091c\u0923": 796,
  "\u2581\u092e\u093e\u0939\u093f\u0924\u0940": 797,
  "\u2581\u0915\u0930\u0941": 798,
  "\u2581fear": 799,
  "\u2581going": 800,
  "The": 801,
  "\u2581prayer": 802,
  "\u2581until": 803,
  "\u2581neither": 804,
  "\u25811,": 805,
  "\u2581\u0918\u0930\u0940": 806,
  "\u2581\u092e\u0928\u093e\u0924": 807,
  "\u2581marriage": 808,
  "\u2581anointed": 809,
  "\u2581something": 810,
  "\u2581\u091a\u093e\u0902\u0917\u0932\u094d\u092f\u093e": 811,
  "\u2581\u092a\u094d\u0930\u0947\u0937\u093f\u0924": 812,
  "\u2581\u0915\u0936\u093e\u092a\u094d\u0930\u0915\u093e\u0930\u0947": 813,
  "\u2581\u0915\u0936\u093e": 814,
  "\u092a\u094d\u0930\u092e\u093e\u0923\u0947": 815,
  "\u2581little": 816,
  "\u2581order": 817,
  "\u2581counsel": 818,
  "\u2581\u0924\u0941\u092e\u091a\u0940": 819,
  "\u2581\u0915\u094b\u0923": 820,
  "\u2581\u0936\u0915\u094d\u092f": 821,
  "\u0930": 822,
  "\u2581\u0926\u0941\u0938\u0931\u094d": 823,
  "\u2581reason": 824,
  "\u2581\u092a\u094d\u0930\u091a\u093e\u0930": 825,
  "\u2581Your": 826,
  "\u2581\u092c\u093e\u092c\u0924\u0940\u0924": 827,
  "\u2581thing": 828,
  "\u2581elders": 829,
  "\u2581\u0939\u093e\u0924": 830,
  "\u2581eat": 831,
  "\u2581Scriptures": 832,
  "\u2581Yet": 833,
  "\u2581righteous": 834,
  "\u2581\u0905\u0930\u094d\u0925\u093e\u0924": 835,
  "\u2581Even": 836,
  "\u2581Thus": 837,
  "\u2581\u0928\u093f\u0930\u094d\u0923\u092f": 838,
  "\u2581personal": 839,
  "\u093e\u0938\u093e\u0920\u0940": 840,
  "\u2581\u0915\u094b\u0923\u0924\u0947": 841,
  "\u25816:": 842,
  "\u2581near": 843,
  "\u2581\u0936\u093f\u0935\u093e\u092f": 844,
  "\u2581however": 845,
  "\u2581\u092e\u094b\u0920\u094d\u092f\u093e": 846,
  "\u2581article": 847,
  "\u2581number": 848,
  "\u2581\u092e\u094d\u0939\u0923\u0924\u0947": 849,
  "\u0924\u0940\u0932": 850,
  "\u2581\u0932\u0939\u093e\u0928": 851,
  "\u2581\u092e\u0928\u0941\u0937\u094d\u092f": 852,
  "C": 853,
  "\u2581\u0928\u0935\u094d\u0939\u0924\u0947": 854,
  "\u2581purpose": 855,
  "\u2581husband": 856,
  "\u2581\u0924\u0941\u091d\u0947": 857,
  "\u2581\u0915\u0920\u0940\u0923": 858,
  "\u2581result": 859,
  "\u2581\u0906\u0936\u0940\u0930\u094d\u0935\u093e\u0926": 860,
  "\u2581Matthew": 861,
  "\u2581These": 862,
  "\u2581known": 863,
  "\u2581\u0938\u0947\u0935\u0915": 864,
  "\u2581\u0938\u094b\u0921\u0942\u0928": 865,
  "\u0932": 866,
  "\u2581here": 867,
  "\u2581\u0915\u0947\u0932\u0902": 868,
  "\u2581\u0924\u0941\u092e\u091a\u0947": 869,
  "\u2581cause": 870,
  "\u2581evil": 871,
  "\u0942": 872,
  "\u093f\u0915": 873,
  "\u2581century": 874,
  "\u2581\u0926\u093e\u0935\u0940\u0926": 875,
  "\u2581\u0926\u0947\u0924": 876,
  "\u092c\u0926\u094d\u0926\u0932": 877,
  "\u258113": 878,
  "\u2581\u0915\u094b\u0923\u0924\u093e": 879,
  "\u2581language": 880,
  "\u2581last": 881,
  "\u2581light": 882,
  "\u2581\u0915\u0930\u0941\u0928": 883,
  "\u2581Abraham": 884,
  "\u2581humans": 885,
  "\u2581Many": 886,
  "\u2581\u0915\u0930\u0924\u0947": 887,
  "\u2581high": 888,
  "\u2581\u092e\u0941\u0932\u093e\u0902\u0928\u093e": 889,
  "\u2581fact": 890,
  "\u2581\u091c\u0917\u093e\u0924": 891,
  "\u2581wise": 892,
  "\u2581\u0928\u0935\u094d\u0939\u0947": 893,
  "\u2581From": 894,
  "\u2581\u0924\u0941\u092e\u094d\u0939\u093e\u0902\u0932\u093e": 895,
  "\u2581really": 896,
  "\u2581\u0968\u0969": 897,
  "\u2581\u0915\u092e\u0940": 898,
  "\u2581\u092e\u0902\u0921\u0933\u0940\u0924": 899,
  "\u2581\u092e\u093e\u0923\u0942\u0938": 900,
  "\u2581ask": 901,
  "\u2581\u0930\u093e\u0939\u093e": 902,
  "\u2581\u092f\u093e\u0924": 903,
  "\u2581\u0926\u0947\u0935\u093e\u091a\u093e": 904,
  "\u0938\u0941\u0926\u094d\u0927\u093e": 905,
  "\u2581mankind": 906,
  "\u2581\u0906\u0936\u093e": 907,
  "\u2581\u0926\u0941\u0937\u094d\u091f": 908,
  "\u2581night": 909,
  "\u2581Mary": 910,
  "\u2581\u092e\u0941\u0932\u0947": 911,
  "\u0940\u0924": 912,
  "\u2581\u0915\u0927\u0940\u0939\u0940": 913,
  "\u2581questions": 914,
  "\u2581\u0909\u0924\u094d\u0924\u092e": 915,
  "\u2581\u0935\u093f\u0936\u094d\u0935\u093e\u0938": 916,
  "\u2581understand": 917,
  "\u2581food": 918,
  "\u2581\u0920\u093f\u0915\u093e\u0923\u0940": 919,
  "\u2581\u0936\u093f\u0915\u094d\u0937\u093e": 920,
  "\u2581\u0905\u0938\u0932\u094d\u092f\u093e\u092e\u0941\u0933\u0947": 921,
  "\u2581\u0938\u094d\u092a\u0937\u094d\u091f": 922,
  "\u2581Solomon": 923,
  "\u2581\u092a\u0930\u092e\u0947\u0936\u094d": 924,
  "\u2581\u0932\u094b\u0915\u093e\u0902\u091a\u094d\u092f\u093e": 925,
  "\u2581\u092c\u093e\u092f\u092c\u0932\u092e\u0927\u094d\u092f\u0947": 926,
  "\u092e\u0927\u0940\u0932": 927,
  "\u2581lives": 928,
  "\u2581\u0939\u094b\u092f": 929,
  "\u2581works": 930,
  "\u2581\u092e\u093e\u0924\u094d\u0930": 931,
  "\u2581prophet": 932,
  "\u2581\u0936\u0915\u094d": 933,
  "\u093e\u0902\u0928\u0940": 934,
  "\u2581answer": 935,
  "\u2581\u092a\u0943\u0925\u094d\u0935\u0940\u0935\u0930": 936,
  "\u2581\u0932\u0915\u094d\u0937\u093e\u0924": 937,
  "\u2581\u0939\u094b\u0923\u093e\u0930": 938,
  "\u2581desire": 939,
  "\u2581\u0909\u0926\u093e\u0939\u0930\u0923\u093e\u0930\u094d\u0925": 940,
  "\u2581Therefore": 941,
  "\u2581turn": 942,
  "\u093e\u0902\u091a\u0947": 943,
  "\u2581Are": 944,
  "\u2581thus": 945,
  "\u2581close": 946,
  "\u2581hands": 947,
  "\u092e\u0941\u0933\u0947": 948,
  "\u2581\u0926\u093f\u0932\u0947\u0932\u094d\u092f\u093e": 949,
  "\u2581\u092a\u093e\u0932\u0928": 950,
  "\u2581cannot": 951,
  "\u2581dead": 952,
  "\u2581\u092a\u0941\u0937\u094d\u0915\u0933": 953,
  "\u2581\u091c\u094d\u091e\u093e\u0928": 954,
  "\u2581\u092f\u0947\u0936\u0942\u0932\u093e": 955,
  "\u092e": 956,
  "\u2581ourselves": 957,
  "\u2581certain": 958,
  "\u2581glory": 959,
  "\u2581helped": 960,
  "\u2581\u091c\u093e\u090a\u0928": 961,
  "\u2581future": 962,
  "\u2581hard": 963,
  "\u258114": 964,
  "\u2581\u0915\u0927\u0940": 965,
  "\u2581\u091c\u0935\u0933": 966,
  "\u2581Egypt": 967,
  "\u2581\u0932\u093e\u0917\u0932\u093e": 968,
  "\u2581righteousness": 969,
  "\u258120": 970,
  "\u2581whole": 971,
  "\u2581experience": 972,
  "\u2581seen": 973,
  "\u2581\u092f\u093e\u0902\u091a\u094d\u092f\u093e": 974,
  "\u2581someone": 975,
  "\u092a\u0923\u0947": 976,
  "\u2581fine": 977,
  "\u2581\u092a\u0939\u093f\u0932\u094d\u092f\u093e": 978,
  "\u2581hear": 979,
  "\u2581far": 980,
  "\u2581meetings": 981,
  "\u2581\u092e\u094b\u0920\u093e": 982,
  "\u2581shal": 983,
  "\u25813": 984,
  "\u2581few": 985,
  "\u2581servant": 986,
  "\u2581\u0905\u0938\u0942": 987,
  "\u2581\u0915\u093e\u0933\u093e\u0924": 988,
  "\u2581\u0938\u093e": 989,
  "\u2581\u0938\u093e\u0902\u0917\u0924\u094b": 990,
  "\u2581Israelites": 991,
  "\u2581\u0932\u093f\u0939\u093f\u0932\u0947": 992,
  "\u2581relationship": 993,
  "\u2581\u0926\u0947\u0923\u094d\u092f\u093e\u0924": 994,
  "\u2581Because": 995,
  "\u2581Jews": 996,
  "\u2581receive": 997,
  "\u2581\u0915\u0943\u0924\u094d\u092f\u0947": 998,
  "\u2581needed": 999,
  "\u2581women": 1000,
  "\u2581\u0915\u0930\u0947\u0932": 1001,
  "\u2581\u091c\u0940": 1002,
  "\u2581Job": 1003,
  "\u2581\u092a\u093e\u0939\u0942\u0928": 1004,
  "\u2581\u0935\u093e\u091f\u0924": 1005,
  "\u2581E": 1006,
  "\u2581kindness": 1007,
  "\u2581\u0907\u0924\u0930\u093e\u0902\u0928\u093e": 1008,
  "\u2581Saul": 1009,
  "\u2581soul": 1010,
  "\u2581received": 1011,
  "\u2581strong": 1012,
  "\u2581learned": 1013,
  "\u2581\u092e\u094d\u0939\u0923\u093e\u0932\u0947": 1014,
  "\u093e\u092e\u0941\u0933\u0947": 1015,
  "\u2581following": 1016,
  "\u2581\u092e\u094d\u0939\u0923\u0924\u093e\u0924": 1017,
  "\u2581body": 1018,
  "\u2581care": 1019,
  "st": 1020,
  "\u2581\u0938\u093e\u0932\u0940": 1021,
  "\u2581message": 1022,
  "\u2581\u0924\u094b\u0902\u0921": 1023,
  "\u2581\u0915\u0930\u0924\u0940\u0932": 1024,
  "\u2581\u0938\u0941\u0930\u0942": 1025,
  "\u2581\u0924\u0941\u091d\u0940": 1026,
  "in": 1027,
  "\u2581four": 1028,
  "\u2581\u092f\u0939\u0942\u0926\u093e": 1029,
  "\u2581Can": 1030,
  "\u2581voice": 1031,
  "\u2581yourself": 1032,
  "\u2581\u0924\u0930\u0941\u0923": 1033,
  "\u2581\u0938\u094d\u0924\u094b\u0924\u094d\u0930": 1034,
  "\u2581\u0968\u096b": 1035,
  "\u0926\u0947\u0916\u0940\u0932": 1036,
  "\u2581\u092e\u093f\u0933\u0947\u0932": 1037,
  "eth": 1038,
  "\u2581Isaiah": 1039,
  "\u2581best": 1040,
  "c": 1041,
  "\u2581\u0915\u0930\u093e\u0935\u0947": 1042,
  "\u2581\u092a\u0941\u0922\u0940\u0932": 1043,
  "\u2581teaching": 1044,
  "\u2581\u0905": 1045,
  "\u2581free": 1046,
  "\u2581continue": 1047,
  "\u2581taken": 1048,
  "\u2581\u0938\u094d\u0935\u0924\u0903\u0932\u093e": 1049,
  "\u2581conduct": 1050,
  "\u2581better": 1051,
  "\u2581\u092e\u0939\u0924\u094d\u0924\u094d\u0935\u093e\u091a\u0947": 1052,
  "\u2581\u0935\u0921\u0940\u0932": 1053,
  "\u2581system": 1054,
  "\u2581New": 1055,
  "\u2581around": 1056,
  "\u2581\u0916\u094d\u0930\u093f\u0938\u094d\u0924": 1057,
  "\u2581matter": 1058,
  "\u094d": 1059,
  "\u2581country": 1060,
  "\u2581believe": 1061,
  "\u2581\u091c\u093f\u0935\u0902\u0924": 1062,
  "Read": 1063,
  "\u2581\u092f\u093e\u091c\u0915": 1064,
  "\u2581Of": 1065,
  "\u2581\u092f\u093e\u0938\u093e\u0920\u0940": 1066,
  "\u2581B": 1067,
  "\u2581possible": 1068,
  "\u2581share": 1069,
  "\u2581\u0918\u0947\u0924\u0932\u093e": 1070,
  "\u2581happy": 1071,
  "\u2581died": 1072,
  "\u2581next": 1073,
  "\u2581money": 1074,
  "\u258112": 1075,
  "\u2581present": 1076,
  "\u2581nothing": 1077,
  "\u2581\u092c\u093e\u092a\u094d\u0924\u093f\u0938\u094d\u092e\u093e": 1078,
  "\u2581\u0928\u0935\u094d\u0939\u0924\u093e": 1079,
  "\u2581kingdom": 1080,
  "\u2581temple": 1081,
  "\u2581\u092b\u0915\u094d": 1082,
  "\u2581benefit": 1083,
  "\u2581friends": 1084,
  "\u0935\u093f\u0937\u092f\u0940": 1085,
  "\u258116": 1086,
  "\u2581\u0939\u094b\u0924\u094d\u092f\u093e": 1087,
  "\u2581\u0926\u0947": 1088,
  "\u2581heavenly": 1089,
  "\u2581pray": 1090,
  "\u2581trust": 1091,
  "\u2581\u0924\u094d\u092f\u093e\u0924": 1092,
  "\u2581knew": 1093,
  "\u2581\u0905\u0928\u0941\u0915\u0930\u0923": 1094,
  "\u258118": 1095,
  "\u2581bad": 1096,
  "\u2581\u092a\u0941\u0924\u094d\u0930": 1097,
  "\u2581\u0918\u0930": 1098,
  "\u2581\u0938\u0932\u094d\u0932\u093e": 1099,
  "\u093e\u092a\u093e\u0938\u0942\u0928": 1100,
  "\u2581fire": 1101,
  "\u2581\u091a\u0930\u094d\u091a\u093e": 1102,
  "\u2581felt": 1103,
  "\u2581support": 1104,
  "\u2581strength": 1105,
  "\u2581\u092f\u093e\u091a\u094d\u092f\u093e": 1106,
  "\u2581early": 1107,
  "\u2581\u092e\u093f\u0924\u094d\u0930": 1108,
  "\u2581flesh": 1109,
  "\u2581head": 1110,
  "\u2581\u0906\u0924\u094d\u092e\u093e": 1111,
  "\u2581\u0928\u093f\u092f\u092e": 1112,
  "\u2581\u092a\u093e\u0923\u0940": 1113,
  "\u2581\u092f\u0941": 1114,
  "\u2581avoid": 1115,
  "\u2581\u092a\u0947\u0924\u094d\u0930": 1116,
  "\u2581\u092c\u0931\u094d": 1117,
  "\u2581talk": 1118,
  "\u2581different": 1119,
  "\u2581sheep": 1120,
  "\u2581thought": 1121,
  "\u2581moved": 1122,
  "\u2581\u0915\u093e\u0933": 1123,
  "\u2581since": 1124,
  "\u2581\u092a\u0941\u0938\u094d\u0924\u0915": 1125,
  "\u2581school": 1126,
  "\u2581stand": 1127,
  "\u2581written": 1128,
  "\u2581\u0924\u0941\u091d\u093e": 1129,
  "\u2581call": 1130,
  "\u2581baptized": 1131,
  "\u2581serving": 1132,
  "\u093e\u0915\u0921\u0947": 1133,
  "\u2581\u090f\u0915\u0926\u093e": 1134,
  "\u2581giving": 1135,
  "\u2581\u0924\u0938\u0947": 1136,
  "\u2581\u092e\u0928": 1137,
  "\u2581\u0905\u0938\u0924\u0940\u0932": 1138,
  "\u2581\u0918\u094d\u092f\u093e": 1139,
  "\u2581\u0930\u093e\u0939\u0942": 1140,
  "\u2581\u0916\u0931\u094d": 1141,
  "\u2581sacrifice": 1142,
  "\u2581\u092f\u093e\u0932\u093e": 1143,
  "\u094b": 1144,
  "\u2581members": 1145,
  "\u2581\u092e\u093f\u0933\u0924\u0947": 1146,
  "\u2581\u092a\u094c\u0932": 1147,
  "\u258111": 1148,
  "\u2581age": 1149,
  "\u093f": 1150,
  "\u2581\u0968\u096e": 1151,
  "\u2581Where": 1152,
  "\u2581war": 1153,
  "\u2581follow": 1154,
  "\u092f\u093e": 1155,
  "\u2581S": 1156,
  "\u2581kind": 1157,
  "\u2581lead": 1158,
  "\u2581\u0909\u092a\u093e\u0938\u0928\u093e": 1159,
  "\u2581\u0915\u0930\u0923\u094d\u092f\u093e\u091a\u0947": 1160,
  "\u25816": 1161,
  "\u2581Thos": 1162,
  "\u2581self": 1163,
  "\u2581\u0932\u094b\u0915\u093e\u0902\u091a\u093e": 1164,
  "\u2581sister": 1165,
  "\u2581return": 1166,
  "\u2581\u091c\u0928\u094d\u092e": 1167,
  "\u2581\u092f\u0915": 1168,
  "A": 1169,
  "\u2581answered": 1170,
  "\u2581field": 1171,
  "\u2581\u092b\u093e\u092f\u0926\u093e": 1172,
  "\u2581Be": 1173,
  "\u2581remain": 1174,
  "\u2581\u0939\u094b\u090a\u0928": 1175,
  "\u2581mean": 1176,
  "\u093e\u0936\u0940": 1177,
  "\u2581comes": 1178,
  "\u2581nation": 1179,
  "\u2581Consider": 1180,
  "\u2581\u0926\u0941\u0903\u0916": 1181,
  "\u2581small": 1182,
  "\u2581\u092f\u093e\u091a\u0947": 1183,
  "\u2581\u092a\u0930\u092e\u0947\u0936\u094d\u0935\u0930\u093e\u091a\u094d\u092f\u093e": 1184,
  "\u2581offering": 1185,
  "\u2581pass": 1186,
  "\u2581\u0939\u094d": 1187,
  "\u2581problems": 1188,
  "\u2581religious": 1189,
  "\u2581sure": 1190,
  "\u2581Timothy": 1191,
  "\u2581needs": 1192,
  "\u2581seven": 1193,
  "\u2581Proverbs": 1194,
  "\u2581teach": 1195,
  "\u2581enjoy": 1196,
  "\u2581\u0938\u0902\u092a\u0942\u0930\u094d\u0923": 1197,
  "\u2581reading": 1198,
  "\u2581\u092d\u0930\u0935\u0938\u093e": 1199,
  "\u2581situation": 1200,
  "\u2581\u092e\u093f\u0933\u093e\u0932\u0947": 1201,
  "ll": 1202,
  "\u2581\u092f\u094b\u0939\u093e\u0928": 1203,
  "\u2581\u0935\u093e\u092a\u0930": 1204,
  "\u2581\u0935\u093e\u091f": 1205,
  "\u2581\u092e\u0930\u0923": 1206,
  "\u2581\u092e\u093f\u0933\u093e\u0932\u0940": 1207,
  "\u0935": 1208,
  "\u2581whether": 1209,
  "\u2581attention": 1210,
  "\u2581\u0915\u0930\u093e\u0935\u093e": 1211,
  "\u2581\u092f\u093e\u0935\u0930": 1212,
  "\u2581\u091c\u093e\u0924\u094b": 1213,
  "\u0902\u0928\u093e": 1214,
  "\u2581\u0906\u0928\u0902\u0926\u0940": 1215,
  "\u2581attitude": 1216,
  "\u2581\u0916\u093e\u0924\u094d\u0930\u0940": 1217,
  "\u2581respect": 1218,
  "\u2581\u0905\u092d\u093f\u0937\u093f\u0915\u094d": 1219,
  "\u2581second": 1220,
  "\u2581\u0928\u0935\u094d\u0939\u0924\u0940": 1221,
  "\u2581\u092d\u093e\u0937\u093e": 1222,
  "\u092a\u0930\u094d\u092f\u0902\u0924": 1223,
  "\u2581covenant": 1224,
  "\u2581\u0906\u0935\u0936\u094d": 1225,
  "\u2581\u0915\u0947\u0932\u094d\u092f\u093e": 1226,
  "\u2581\u0916\u0930\u094b\u0916\u0930": 1227,
  "\u0924\u094b": 1228,
  "\u2581\u090f\u0915\u0924\u094d\u0930": 1229,
  "\u2581account": 1230,
  "\u2581\u0915\u0930\u0924\u093e\u0928\u093e": 1231,
  "\u2581walk": 1232,
  "\u2581\u0915\u0930\u093e\u0930": 1233,
  "\u2581die": 1234,
  "\u2581makes": 1235,
  "\u2581side": 1236,
  "\u2581\u0936\u093f\u0937\u094d\u092f": 1237,
  "\u25812.": 1238,
  "\u2581\u0906\u0926\u0930": 1239,
  "\u2581priest": 1240,
  "\u2581sense": 1241,
  "\u2581\u0926\u0941\u0938\u0931\u094d\u092f\u093e": 1242,
  "\u0905": 1243,
  "\u2581case": 1244,
  "\u2581question": 1245,
  "\u2581\u0926\u0941": 1246,
  "\u258119": 1247,
  "\u2581along": 1248,
  "\u2581wrong": 1249,
  "\u2581\u0915\u094b\u0923\u0924\u094d\u092f\u093e\u0939\u0940": 1250,
  "\u2581happened": 1251,
  "\u2581\u091a\u093e\u0902\u0917\u0932\u093e": 1252,
  "\u2581\u0936\u0947\u0935\u091f\u0940": 1253,
  "\u0924\u093e": 1254,
  "\u2581married": 1255,
  "\u2581\u0918\u0947\u0924\u0932\u0947": 1256,
  "\u2581\u0909\u0932\u091f": 1257,
  "\u2581saith": 1258,
  "\u2581understanding": 1259,
  "\u2581Although": 1260,
  "\u2581coming": 1261,
  "\u2581\u092e\u094d\u0939\u0923\u0942\u0928\u091a": 1262,
  "\u2581\u0915\u094b\u0923\u0940\u0939\u0940": 1263,
  "\u2581%": 1264,
  "\u25817": 1265,
  "\u2581ancient": 1266,
  "\u2581\u0918\u0947\u0924\u0932\u0940": 1267,
  "\u2581act": 1268,
  "\u2581behold": 1269,
  "\u2581\u091f\u0949\u092e\u0932\u093e": 1270,
  "\u2581difficult": 1271,
  "\u2581priests": 1272,
  "\u2581\u0928\u093f\u0936\u094d": 1273,
  "\u2581\u0936\u0924\u094d\u0930\u0942": 1274,
  "\u2581\u092a\u0930\u092e\u0947\u0936\u094d\u0935\u0930\u093e": 1275,
  "\u2581\u0932\u0917\u094d\u0928": 1276,
  "\u2581s": 1277,
  "\u2581\u0938\u0939\u0938\u093e": 1278,
  "\u2581\u092f\u093e\u0935\u093f\u0937\u092f\u0940": 1279,
  "\u2581D": 1280,
  "\u2581whose": 1281,
  "\u2581\u092b\u0915\u094d\u0924": 1282,
  "\u2581soon": 1283,
  "\u2581feelings": 1284,
  "\u25818": 1285,
  "\u2581Did": 1286,
  "\u2581Joseph": 1287,
  "\u2581five": 1288,
  "\u2581point": 1289,
  "\u2581\u0916\u093e\u0938": 1290,
  "\u2581\u0918\u0947\u090a": 1291,
  "\u2581cities": 1292,
  "\u2581thousand": 1293,
  "\u2581Adam": 1294,
  "\u2581hundred": 1295,
  "\u2581sea": 1296,
  "\u2581perfect": 1297,
  "\u2581\u092a\u093e\u0939\u0942": 1298,
  "\u2581\u0932\u093e\u0917\u0932\u0940": 1299,
  "\u2581leave": 1300,
  "\u2581Luke": 1301,
  "\u2581seek": 1302,
  "\u2581\u0968\u096c": 1303,
  "\u2581\u092f\u0947\u090a": 1304,
  "\u2581judgment": 1305,
  "\u2581&": 1306,
  "\u2581kept": 1307,
  "\u2581mouth": 1308,
  "\u2581thinking": 1309,
  "\u2581\u0909\u0932\u094d\u0932\u0947\u0916": 1310,
  "\u2581\u0939\u094b\u0924\u0940\u0932": 1311,
  "\u2581\u091c\u093e": 1312,
  "\u2581\u0938\u092e\u0938\u094d\u092f\u093e": 1313,
  "\u2581\u092f\u093e\u0928\u0947": 1314,
  "\u2581Not": 1315,
  "\u2581\u0906\u0927\u0940": 1316,
  "\u2581especially": 1317,
  "\u2581daughter": 1318,
  "\u2581\u0930\u093e\u0939\u093f\u0932\u0947": 1319,
  "\u2581anything": 1320,
  "\u093e\u0935\u093f\u0937\u092f\u0940": 1321,
  "\u25819": 1322,
  "\u2581suffering": 1323,
  "r": 1324,
  "\u2581\u0924\u094d\u092f\u093e\u091a\u094d\u092f\u093e\u0935\u0930": 1325,
  "\u2581everlasting": 1326,
  "\u2581gives": 1327,
  "\u2581spoke": 1328,
  "\u2581wanted": 1329,
  "\u2581rest": 1330,
  "\u2581taught": 1331,
  "\u2581\u092e\u0943\u0924\u094d\u092f\u0942": 1332,
  "\u2581\u092f\u0947\u090a\u0928": 1333,
  "\u2581real": 1334,
  "\u2581\u0905\u0938\u0932\u0947\u0932\u0947": 1335,
  "\u2581\u092e\u0924\u094d\u0924\u092f": 1336,
  "\u093e\u0924\u0940\u0932": 1337,
  "\u2581\u0905\u0930\u094d\u092a\u0923": 1338,
  "\u2581\u0915\u093e\u0939\u0940\u0939\u0940": 1339,
  "\u2581\u092c\u0930\u0947": 1340,
  "\u2581allow": 1341,
  "\u2581within": 1342,
  "\u2581\u0935\u0930\u094d\u0937\u0947": 1343,
  "\u2581\u0939\u094b\u0924\u093e\u0924": 1344,
  "\u2581\u092e\u0941\u0916\u094d\u092f": 1345,
  "\u2581\u0930\u093e\u0939\u093f\u0932\u093e": 1346,
  "\u2581\u092c\u0926\u0932": 1347,
  "\u2581provide": 1348,
  "\u2581turned": 1349,
  "\u2581\u0915\u093e\u0922\u0942\u0928": 1350,
  "\u0928\u093e": 1351,
  "\u2581forever": 1352,
  "\u258112:": 1353,
  "\u2581states": 1354,
  "\u2581Law": 1355,
  "\u2581\u092a\u094d\u0930\u093e\u092a\u094d\u0924": 1356,
  "\u2581Does": 1357,
  "\u2581born": 1358,
  "\u2581certainly": 1359,
  "\u2581\u092f\u0947\u0925\u0940\u0932": 1360,
  "\u2581\u0935\u093f\u091a\u093e\u0930\u0932\u0947": 1361,
  "\u2581Acts": 1362,
  "\u2581\u0916\u0930\u094b\u0916\u0930\u091a": 1363,
  "\u2581\u0935\u0938\u094d\u0924\u0942": 1364,
  "\u2581\u0917\u0941\u0923": 1365,
  "\u2581apostles": 1366,
  "\u2581\u0930\u093e\u0924\u094d\u0930\u0940": 1367,
  "\u2581\u0969\u0966": 1368,
  "\u2581\u0924\u094d\u092f\u093e\u0928\u0902\u0924\u0930": 1369,
  "\u2581\u092f\u093e\u0915\u094b\u092c": 1370,
  "\u2581\u0936\u0941\u0926\u094d\u0927": 1371,
  "\u2581large": 1372,
  "\u2581open": 1373,
  "\u2581\u0938\u094d\u0935\u0924\u0903": 1374,
  "\u2581\u0905\u0938\u0932\u0947": 1375,
  "\u2581\u0905\u0928\u0941\u092d\u0935": 1376,
  "\u0921": 1377,
  "\u2581\u0936\u094c\u0932": 1378,
  "\u2581likely": 1379,
  "\u2581\u0924\u0930\u0940\u0938\u0941\u0926\u094d\u0927\u093e": 1380,
  "\u093e\u0938": 1381,
  "\u2581Jacob": 1382,
  "\u2581taking": 1383,
  "\u2581\u0909\u0926\u094d\u0926\u0947\u0936": 1384,
  "\u2581\u0968\u096f": 1385,
  "\u2581false": 1386,
  "\u2581spiritually": 1387,
  "\u2581Don": 1388,
  "\u2581sisters": 1389,
  "\u2581Since": 1390,
  "\u2581friend": 1391,
  "\u2581\u0926\u0947\u0936\u093e\u0924": 1392,
  "\u2581\u0928\u094d\u092f\u093e\u092f": 1393,
  "\u2581\u0910\u0915\u0932\u0947": 1394,
  "\u2581information": 1395,
  "You": 1396,
  "\u2581commanded": 1397,
  "\u2581slave": 1398,
  "\u2581\u0920\u093e\u0930": 1399,
  "\u2581\u0932\u0947\u0916\u093e\u0924": 1400,
  "\u2581Corinthians": 1401,
  "\u2581once": 1402,
  "\u2581\u0915\u0932\u094d\u092a\u0928\u093e": 1403,
  "\u2581followers": 1404,
  "\u2581\u0938\u0902\u092c\u0902\u0927": 1405,
  "\u2581change": 1406,
  "\u2581\u0927\u093e\u0930\u094d\u092e\u093f\u0915": 1407,
  "\u2581\u0968\u096d": 1408,
  "\u258125": 1409,
  "ve": 1410,
  "\u2581\u0928\u093e\u0939\u0940\u092f\u0947": 1411,
  "\u092a\u0947\u0915\u094d\u0937\u093e": 1412,
  "\u2581While": 1413,
  "\u2581loved": 1414,
  "\u2581matters": 1415,
  "\u2581\u0906\u0932\u0902": 1416,
  "\u2581\u0915\u0930\u0923\u093e\u0930\u0947": 1417,
  "\u2581\u0936\u093e\u0902\u0924\u0940": 1418,
  "\u2581\u0969\u0967": 1419,
  "\u2581fathers": 1420,
  "\u2581sword": 1421,
  "\u2581lived": 1422,
  "\u258110.": 1423,
  "\u2581heavens": 1424,
  "\u2581\u0926\u0947\u0936": 1425,
  "\u2581poor": 1426,
  "\u2581\u0906\u0936\u094d": 1427,
  "\u2581offer": 1428,
  "\u2581\u0928\u0915\u094b\u0938": 1429,
  "\u25814.": 1430,
  "\u2581World": 1431,
  "\u2581month": 1432,
  "\u2581Read": 1433,
  "\u2581Will": 1434,
  "\u2581individuals": 1435,
  "\u2581\u092a\u0942\u0930\u094d\u0923\u092a\u0923\u0947": 1436,
  "g": 1437,
  "\u2581principles": 1438,
  "\u2581special": 1439,
  "\u2581ten": 1440,
  "\u2581draw": 1441,
  "\u2581gift": 1442,
  "\u2581kings": 1443,
  "\u2581qualities": 1444,
  "\u2581\u091c\u093e\u0924\u093e\u0924": 1445,
  "\u0967": 1446,
  "\u2581bread": 1447,
  "\u2581got": 1448,
  "\u2581\u0905\u092a\u0947\u0915\u094d\u0937\u093e": 1449,
  "\u2581\u0924\u094d\u092f\u093e\u091a": 1450,
  "\u2581\u092e\u093e\u0923\u0938\u0947": 1451,
  "\u2581\u0926\u0943\u0937\u094d\u091f\u093f\u0915\u094b\u0928": 1452,
  "i": 1453,
  "\u0926": 1454,
  "\u2581Greek": 1455,
  "\u2581Daniel": 1456,
  "\u2581Such": 1457,
  "\u2581\u0920\u0947\u0935\u0932\u0947": 1458,
  "\u2581hold": 1459,
  "\u2581\u0932\u0947\u0916": 1460,
  "\u2581Watchtower": 1461,
  "\u2581\u092c\u093e\u092f\u092c\u0932\u092e\u0927\u0940\u0932": 1462,
  "\u258110": 1463,
  "\u2581hearts": 1464,
  "\u2581praise": 1465,
  "\u2581witness": 1466,
  "\u2581\u0907\u092c\u094d\u0930\u0940": 1467,
  "\u2581Babylon": 1468,
  "\u2581feet": 1469,
  "\u2581\u0915\u0927\u0940\u091a": 1470,
  "\u2581\u092d\u093e\u0935\u0928\u093e": 1471,
  "\u2581remember": 1472,
  "\u2581\u091a\u093e\u0902\u0917\u0932\u0940": 1473,
  "\u2581\u0938\u0902\u0927\u0940": 1474,
  "o": 1475,
  "\u0939\u093f": 1476,
  "\u258110:": 1477,
  "\u2581James": 1478,
  "\u2581including": 1479,
  "\u2581\u0915\u0938\u0902": 1480,
  "\u2581\u0915\u094d\u0937\u092e\u093e": 1481,
  "\u2581Devil": 1482,
  "\u2581\u091a\u093e\u0930": 1483,
  "\u2581English": 1484,
  "\u2581resurrection": 1485,
  "\u2581drink": 1486,
  "),": 1487,
  "\u2581build": 1488,
  "\u0924\u0942": 1489,
  "\u2581enemies": 1490,
  "\u2581\u092a\u094d\u0930\u094b\u0924\u094d\u0938\u093e\u0939\u0928": 1491,
  "\u2581\u092c\u094b\u0932\u0924": 1492,
  "\u2581gold": 1493,
  "\u2581health": 1494,
  "\u2581spoken": 1495,
  "\u2581\u092a\u0943\u0937\u094d\u0920": 1496,
  "\u093e\u092a\u094d\u0930\u092e\u093e\u0923\u0947": 1497,
  "\u2581happiness": 1498,
  "\u2581Jeremiah": 1499,
  "\u2581try": 1500,
  "\u2581\u0930\u0915\u094d": 1501,
  "\u2581\u0935\u0947\u0933\u093e": 1502,
  "\u2581material": 1503,
  "\u2581\u0907\u0938\u094d\u0930\u093e\u090f\u0932\u0940": 1504,
  "\u2581hast": 1505,
  "est": 1506,
  "\u2581Behold": 1507,
  "\u2581alone": 1508,
  "\u2581\u0932\u094b\u0915\u093e\u0902\u091a\u0940": 1509,
  "\u2581\u0906\u0920\u0935\u0923": 1510,
  "\u2581\u091a\u093f\u0924\u094d\u0930\u0947": 1511,
  "\u2581\u0936\u094b\u0927": 1512,
  "\u2581\u0932\u0935\u0915\u0930\u091a": 1513,
  "\u2581Pictures": 1514,
  "\u2581\u092e\u093e\u0930\u094d\u0917\u0926\u0930\u094d\u0936\u0928": 1515,
  "\u2581\u0926\u0947\u0908\u0932": 1516,
  "\u25818.": 1517,
  "\u2581Romans": 1518,
  "\u2581\u0905\u0902\u0924": 1519,
  "\u2581\u0916\u093e\u0932\u0940": 1520,
  "\u2581already": 1521,
  "\u2581\u091c\u093e\u0923\u0940\u0935": 1522,
  "\u2581T": 1523,
  "\u0924\u0941\u092e\u094d\u0939\u0940": 1524,
  "\u2581similar": 1525,
  "\u2581\u092a\u094d\u0930\u0915\u093e\u0936": 1526,
  "\u2581Today": 1527,
  "\u2581sins": 1528,
  "\u2581\u0917\u0947\u0932\u0940": 1529,
  "\u2581\u0939\u0947\u091a": 1530,
  "\u2581listen": 1531,
  "\u2581\u0928\u0915\u094d\u0915\u0940\u091a": 1532,
  "\u2581\u092e\u0928\u094b\u0935\u0943\u0924\u094d\u0924\u0940": 1533,
  "\u2581deal": 1534,
  "\u2581\u0915\u0947\u0932\u094d\u092f\u093e\u092e\u0941\u0933\u0947": 1535,
  "\u2581\u092a\u0930\u093f\u0938\u094d\u0925\u093f\u0924\u0940": 1536,
  "\u2581appointed": 1537,
  "\u2581\u092a\u093f\u0924\u093e": 1538,
  "\u2581\u0932\u0917\u0947\u091a": 1539,
  "\u2581anyone": 1540,
  "\u2581cut": 1541,
  "\u2581\u0938\u093e\u0924": 1542,
  "\u258122": 1543,
  "\u2581accept": 1544,
  "\u2581\u0926\u093f\u0932\u0902": 1545,
  "\u2581Their": 1546,
  "\u2581meet": 1547,
  "\u2581\u0924\u094d\u092f\u093e\u0902\u091a\u094d\u092f\u093e\u0935\u0930": 1548,
  "\u2581truly": 1549,
  "\u092c\u0930\u094b\u092c\u0930": 1550,
  "\u2581greater": 1551,
  "\u2581please": 1552,
  "\u2581shows": 1553,
  "\u2581\u0924\u093f\u0925\u0947": 1554,
  "\u2581divine": 1555,
  "\u2581anger": 1556,
  "\u2581\u0938\u093e\u0902\u0917\u093f\u0924\u0932\u0902": 1557,
  "\u2581imitate": 1558,
  "\u2581\u0928\u0915\u094b": 1559,
  "\u093e\u092c\u0926\u094d\u0926\u0932": 1560,
  "\u2581wonderful": 1561,
  "\u2581\u092f": 1562,
  "\u2581Would": 1563,
  "!\"": 1564,
  "\u2581blessing": 1565,
  "\u2581past": 1566,
  "\u2581\u092f\u0939\u094b\u0935\u093e\u091a\u093e": 1567,
  "\u2581circumstances": 1568,
  "\u2581control": 1569,
  "\u2581speaking": 1570,
  "l": 1571,
  "\u2581\u0938\u094d\u0924\u094d\u0930\u0940": 1572,
  "\u2581provided": 1573,
  "\u2581tree": 1574,
  "\u2581Rather": 1575,
  "\u2581involved": 1576,
  "\u2581\u092f\u0939\u094b\u0935\u093e\u0935\u0930": 1577,
  "\u093e\u0902\u0935\u0930": 1578,
  "\u2581\u0938\u094d\u0924\u0941\u0924\u0940": 1579,
  "\u2581An": 1580,
  "\u2581Creator": 1581,
  "\u2581above": 1582,
  "\u2581clear": 1583,
  "\u2581regard": 1584,
  "\u2581\u0932\u093e\u0917\u0947\u0932": 1585,
  "\u258115,": 1586,
  "\u2581fully": 1587,
  "\u2581started": 1588,
  "\u2581\u091f\u0949\u092e\u0928\u0947": 1589,
  "\u2581\u0905\u0938\u0932\u094d\u092f\u093e\u0938": 1590,
  "\u2581comfort": 1591,
  "\u2581\u0915\u0930\u093e\u092f\u091a\u0947": 1592,
  "\u2581\u092e\u093e\u0917\u0947": 1593,
  "\u2581\u092c\u0930\u094b\u092c\u0930": 1594,
  "\u0938\u094d\u0924\u094b\u0924\u094d\u0930": 1595,
  "\u2581six": 1596,
  "\u0902\u091a\u093e": 1597,
  "\u0933": 1598,
  "\u2581\u0915\u0930\u093e\u0935\u0940": 1599,
  "\u2581\u091c\u093e\u0923\u0942\u0928": 1600,
  "\u2581sight": 1601,
  "\u258112.": 1602,
  "\u25817.": 1603,
  "\u2581\u0905\u091c\u0942\u0928\u0939\u0940": 1604,
  "\u2581Samuel": 1605,
  "\u2581group": 1606,
  "\u2581\u092a\u094d\u0930\u092e\u0941\u0916": 1607,
  "\u2581\u0938\u0930\u094d\u0935\u093e\u0902\u0928\u093e": 1608,
  "\u2581prayers": 1609,
  "\u2581\u092a\u0941\u0930\u0941\u0937": 1610,
  "\u2581\u0926\u0947\u0935\u093e": 1611,
  "\u2581\u092a\u0943\u0925\u094d\u0935\u0940": 1612,
  "\u258111:": 1613,
  "\u2581\u0938\u0948\u0928\u094d\u092f": 1614,
  "\u2581\u0935\u093f\u0935\u093e\u0939": 1615,
  "\u2581\u0909\u092d\u0947": 1616,
  "\u2581lost": 1617,
  "\u2581\u091d\u093e\u0932\u0947\u0932\u094d\u092f\u093e": 1618,
  "\u2581\u0938\u0942\u091a": 1619,
  "\u2581form": 1620,
  "\u2581\u0926\u0947\u090a\u0928": 1621,
  "\u2581morning": 1622,
  "\u2581\u0905\u0938\u0924\u093e": 1623,
  "\u2581\u0917\u094c\u0930\u0935": 1624,
  "\u2581\u0906\u0908": 1625,
  "\u2581places": 1626,
  "\u258114.": 1627,
  "\u25819.": 1628,
  "\u2581everything": 1629,
  ".'": 1630,
  "\u2581\u0915\u0927\u0940\u0915\u0927\u0940": 1631,
  "\u2581Scriptural": 1632,
  "\u2581\u091c\u093e\u0917\u093e": 1633,
  "\u2581Like": 1634,
  "\u2581\u0918\u0930\u093e\u0924": 1635,
  "\u2581\u092d\u0947\u091f": 1636,
  "\u2581\u092f\u0936\u092f\u093e": 1637,
  "\u0932\u0902": 1638,
  "\u2581showed": 1639,
  "\u2581served": 1640,
  "\u2581\u0938\u093e\u0939\u093e\u092f\u094d\u092f": 1641,
  "\u2581\u0938\u0948\u0924\u093e\u0928": 1642,
  "\u2581fall": 1643,
  "\u2581\u092b\u0933": 1644,
  "\u2581examples": 1645,
  "\u2581\u092f\u093e\u0902\u091a\u093e": 1646,
  "\u2581\u0924\u0940\u0932\u093e": 1647,
  "\u2581interest": 1648,
  "\u2581honor": 1649,
  "\u0966\u0966\u0966": 1650,
  "\u2581deep": 1651,
  "\u2581\u0905\u0938\u0932\u094d\u092f\u093e\u091a\u0947": 1652,
  "\u258111.": 1653,
  "\u2581\u0928\u093e\u0924\u094d\u092f\u093e\u0928\u0947": 1654,
  "\u2581door": 1655,
  "\u2581Revelation": 1656,
  "\u2581\u0924\u094d\u092f\u093e\u0935\u0930": 1657,
  "\u2581\u0926\u0947\u0924\u093e\u0924": 1658,
  "\u25815.": 1659,
  "\u2581prophecy": 1660,
  "\u2581rather": 1661,
  "\u2581rule": 1662,
  "\u2581Joshua": 1663,
  "\u2581blessings": 1664,
  "\u2581mercy": 1665,
  "\u2581un": 1666,
  "\u2581\u0930\u0915\u094d\u0937\u0923": 1667,
  "\u258113.": 1668,
  "\u2581\u092f\u0930\u0941\u0936\u0932\u0947\u092e": 1669,
  "\u2581authority": 1670,
  "\u2581\u092c\u0930\u0947\u091a": 1671,
  "\u2581Noah": 1672,
  "\u091f": 1673,
  "\u2581Have": 1674,
  "\u2581effort": 1675,
  "\u2581inspired": 1676,
  "\u2581\u092e\u093e\u0928\u0935\u0940": 1677,
  "\u2581\u0938\u093e\u0902\u0924\u094d\u0935\u0928": 1678,
  "\u0902\u091a\u0940": 1679,
  "\u2581mentioned": 1680,
  "\u2581\u0928\u093f\u092f\u092e\u0936\u093e\u0938\u094d\u0924\u094d\u0930": 1681,
  "....": 1682,
  "\u0939\u0947": 1683,
  "\u2581\u092f\u0947\u0923\u093e\u0930": 1684,
  "\u0940\u092f": 1685,
  "\u2581confidence": 1686,
  "\u2581mine": 1687,
  "\u2581\u092e\u093e\u091d\u0902": 1688,
  "\u2581evidence": 1689,
  "\u2581organization": 1690,
  "\u2581\u0910\u0915\u0942\u0928": 1691,
  "\u2581clean": 1692,
  "\u2581\u092f\u0947\u0924\u094b": 1693,
  "\u2581M": 1694,
  "\u2581based": 1695,
  "\u2581move": 1696,
  "\u2581using": 1697,
  "\u2581\u0938\u0924\u0924": 1698,
  "\u258117.": 1699,
  "\u2581\u092a\u0930\u092e\u0947\u0936\u094d\u0935\u0930\u093e\u091a\u093e": 1700,
  "\u2581\u092f\u0947\u0924\u093e\u0924": 1701,
  "\u2581gain": 1702,
  "\u2581preach": 1703,
  "\u2581\u092a\u0924\u094d\u0928\u0940": 1704,
  "\u2581\u0938\u092e\u091c\u0942\u0928": 1705,
  "\u0947\u0932": 1706,
  "\u2581\u0935\u093f\u0915\u0924": 1707,
  "\u2581further": 1708,
  "\u2581Dur": 1709,
  "\u2581religion": 1710,
  "\u2581\u092e\u093e\u0928\u0935": 1711,
  "\u2581\u092e\u094d\u0939\u091f\u0932\u0902": 1712,
  "\u2581\u0938\u0941\u0902\u0926\u0930": 1713,
  "\u2581bear": 1714,
  "\u2581pioneer": 1715,
  "\u2581cast": 1716,
  "\u2581\u0928\u093e": 1717,
  "\u2581\u092a\u094d\u0930\u092d\u0941": 1718,
  "\u092a": 1719,
  "\u2581\u0905\u0938\u0932\u0947\u0932\u0940": 1720,
  "\u2581\u092e\u094b\u0936\u0947": 1721,
  "\u2581\u0905\u0927\u093f\u0915\u093e\u0930": 1722,
  "\u2581\u0969\u0968": 1723,
  "\u2581\u0928\u093f\u0935\u0921": 1724,
  "\u2581\u0938\u093e\u092e\u0930\u094d\u0925\u094d\u092f": 1725,
  "\u2581\u092a\u094d\u0930\u092d\u093e\u0935": 1726,
  ",\"": 1727,
  "\u2581privilege": 1728,
  "\u2581salvation": 1729,
  "\u2581\u0907\u0938\u094d\u0930\u093e\u090f\u0932\u091a\u094d\u092f\u093e": 1730,
  "\u2581\u0926\u0947\u0924\u0947": 1731,
  "w": 1732,
  "\u2581promise": 1733,
  "\u2581fruit": 1734,
  "\u0935\u093e": 1735,
  "\u25817:": 1736,
  "\u258130": 1737,
  "\u258115.": 1738,
  "\u2581F": 1739,
  "\u2581\u0930\u093e\u0917": 1740,
  "\u2581\u0936\u093f\u0915\u094d\u0937\u0923": 1741,
  "\u2581\u0928\u0940\u0924\u093f\u0938\u0942\u0924\u094d\u0930\u0947": 1742,
  "\u2581Bethel": 1743,
  "\u2581Moreover": 1744,
  "\u2581thereof": 1745,
  "\u2581wants": 1746,
  "\u2581letter": 1747,
  "\u2581seed": 1748,
  "\u2581\u0926\u092f\u093e": 1749,
  "\u2581thine": 1750,
  "\u2581\u0924\u093f\u091a\u093e": 1751,
  "an": 1752,
  "\u2581\u0930": 1753,
  "\u2581loyal": 1754,
  "\u2581maintain": 1755,
  "\u2581\u092a\u0943\u0925\u094d\u0935\u0940\u0935\u0930\u0940\u0932": 1756,
  "\u2581\u092a\u094d\u0930\u0947\u092e\u0933": 1757,
  "\u2581\u0932\u094b\u0915\u093e\u0902\u091a\u0947": 1758,
  "ic": 1759,
  "\u0902\u0928\u0940": 1760,
  "\u2581efforts": 1761,
  "\u2581\u0935\u0930\u094d\u0937\u0940": 1762,
  "able": 1763,
  "\u2581\u0915\u0930\u0923\u0902": 1764,
  "\u2581\u092a\u0942\u0930\u094d\u0935\u0940": 1765,
  "\u2581rich": 1766,
  "\u2581\u092e\u0928\u093e\u092a\u093e\u0938\u0942\u0928": 1767,
  "\u2581\u0935\u0930\u094d\u0923\u0928": 1768,
  "\u2581\u092a\u0930\u092e\u0947\u0936\u094d\u0935\u0930\u093e\u0932\u093e": 1769,
  "\u2581\u0906\u092a\u0932\u094d\u092f\u093e\u0935\u0930": 1770,
  "\u2581\u092e\u093e\u0928": 1771,
  "\u25816.": 1772,
  "\u2581United": 1773,
  "\u2581returned": 1774,
  "\u2581\u091a\u0928\u093e\u0902\u0928\u093e": 1775,
  "\u2581\u0938\u0941\u0930\u0941\u0935\u093e\u0924": 1776,
  "\u2581\u092d\u093e\u090a": 1777,
  "\u2581THE": 1778,
  "\u2581offered": 1779,
  "\u2581knows": 1780,
  "\u2581\u091c\u0938\u0947": 1781,
  "\u2581\u092c\u093e\u0902\u0927\u0935": 1782,
  "\u2581blessed": 1783,
  "\u2581decisions": 1784,
  "\u2581\u091c\u0917": 1785,
  "\u2581May": 1786,
  "\u2581congregations": 1787,
  "\u2581Hebrews": 1788,
  "\u0923\u093e\u0931\u094d": 1789,
  "\u2581write": 1790,
  "\u2581\u0905\u0928\u094d": 1791,
  "\u258116.": 1792,
  "\u2581\u0928\u0938\u0924\u0947": 1793,
  "\u2581named": 1794,
  "\u2581meeting": 1795,
  "\u2581meaning": 1796,
  "\u2581older": 1797,
  "\u2581\u0906\u0932\u0947\u0932\u094d\u092f\u093e": 1798,
  "\u2581\u092a\u094d\u0930\u0915\u093e\u0930": 1799,
  "\u2581effect": 1800,
  "\u2581led": 1801,
  "\u2581midst": 1802,
  "\u2581public": 1803,
  "\u2581\u0907\u0925\u0947": 1804,
  "\u2581\u091c\u092c\u093e\u092c\u0926\u093e\u0930\u0940": 1805,
  "\u2581\u092e\u094b\u0920\u0940": 1806,
  "\u2581\u092e\u094b\u0920\u0947": 1807,
  "\u2581\u0936\u0932\u092e\u094b\u0928": 1808,
  "\u2581willing": 1809,
  "\u2581yourselves": 1810,
  "es": 1811,
  "\u2581concerning": 1812,
  "\u2581\u091c\u0935\u0933\u091c\u0935\u0933": 1813,
  "\u2581value": 1814,
  "\u2581\u0916\u0930\u093e": 1815,
  "\u2581met": 1816,
  "\u2581months": 1817,
  "\u2581strengthen": 1818,
  "\u2581\u0905\u0938\u093e\u0935\u0947": 1819,
  "\u0924\u0947": 1820,
  "\u2581integrity": 1821,
  "\u258117": 1822,
  "\u2581\u0930\u093e\u091c\u0947": 1823,
  "\u2581local": 1824,
  "\u2581\u092e\u094d\u0939\u0923\u0924\u093e": 1825,
  "\u2581\u0926\u0930\u0930\u094b\u091c": 1826,
  "\u2581simply": 1827,
  "\u2581\u0915\u0941\u0920\u0947": 1828,
  "\u2581angels": 1829,
  "\u2581\u092a\u094d\u0930\u093e\u091a\u0940\u0928": 1830,
  "\u0968": 1831,
  "\u2581believers": 1832,
  "\u2581serious": 1833,
  "\u2581\u092f\u0939\u0942\u0926\u0940": 1834,
  "\u2581\u0935\u093e\u091f\u0924\u0902": 1835,
  "\u0923": 1836,
  "\u2581opportunity": 1837,
  "\u2581prove": 1838,
  "\u2581standards": 1839,
  "\u2581stay": 1840,
  "\u2581\u0920\u0947\u0935\u0932\u093e": 1841,
  "\u2581couple": 1842,
  "\u2581\u0915\u0930\u0923\u093e\u0930\u093e": 1843,
  "\u2581\u092c\u0939\u0941\u0924\u0947\u0915": 1844,
  "\u2581\u092d\u0940\u0924\u0940": 1845,
  "\u2581changed": 1846,
  "\u25813.": 1847,
  "\u2581powerful": 1848,
  "\u2581\u0920\u0947\u0935\u093e": 1849,
  "\u2581\u0930\u093e\u0939\u0940\u0932": 1850,
  "\u2581\u0915\u094b\u0923\u093e\u0932\u093e": 1851,
  "\u2581\u0928\u0947\u0939\u092e\u0940\u091a": 1852,
  "\u093e\u091a\u0902": 1853,
  "\u2581else": 1854,
  "\u2581apply": 1855,
  "\u2581\u0907\u0924\u0915\u0947": 1856,
  "\u2581\u092e\u0902\u0926\u093f\u0930": 1857,
  "\u2581wine": 1858,
  "\u2581\u0924\u0938\u0902\u091a": 1859,
  "\u2581\u092e\u0947\u0930\u0940": 1860,
  "\u2581\u092e\u094d\u0939\u0923\u0942": 1861,
  "\u2581Hebrew": 1862,
  "\u2581promises": 1863,
  "\u2581stood": 1864,
  "\u2581\u0917\u0947\u0932\u094b": 1865,
  "\u2581\u091d\u093e\u0932\u0902": 1866,
  "\u2581angel": 1867,
  "\u2581built": 1868,
  "\u2581thoughts": 1869,
  "\u2581\u092e\u093e\u091d\u094d\u092f\u093e\u0935\u0930": 1870,
  "\u2581\u0969\u0969": 1871,
  "\u093e\u0902\u092e\u0927\u094d\u092f\u0947": 1872,
  "\u2581ago": 1873,
  "\u0938\u093e\u0930\u0916\u0947": 1874,
  "\u2581\u0918\u0921\u0932\u0947": 1875,
  "\u2581\u092c\u0902\u0926": 1876,
  "\u2581Instead": 1877,
  "\u2581myself": 1878,
  "\u094d\u0938": 1879,
  "\u2581\u0936\u0939\u0930": 1880,
  "\u2581\u092a\u0948\u0938\u0947": 1881,
  "\u2581Still": 1882,
  "\u2581action": 1883,
  "\u2581carry": 1884,
  "\u2581\u0935\u093e\u091f\u0932\u0947": 1885,
  "\u2581fell": 1886,
  "\u2581\u091c\u0940\u0935": 1887,
  "\u2581history": 1888,
  "\u2581longer": 1889,
  "\u2581\u0932\u0942\u0915": 1890,
  "\u2581According": 1891,
  "\u2581\u0905\u0926\u094d": 1892,
  "\u2581\u0938\u0926\u0938\u094d\u092f": 1893,
  "\u2581physical": 1894,
  "\u2581raised": 1895,
  "\u2581\u0915\u093e\u0939\u0940\u091a": 1896,
  "See": 1897,
  "\u2581India": 1898,
  "\u2581decision": 1899,
  "\u2581doubt": 1900,
  "\u2581everyone": 1901,
  "\u2581\u092e\u093e\u091d\u094d\u092f\u093e\u0915\u0921\u0947": 1902,
  "\u2581precious": 1903,
  "\u2581\u0906\u0924": 1904,
  "\u2581\u0927\u0930\u094d\u092e": 1905,
  "\u2581Genesis": 1906,
  "\u2581continued": 1907,
  "\u2581helps": 1908,
  "\u2581\u0928\u0938\u0947\u0932": 1909,
  "or": 1910,
  "\u2581Indeed": 1911,
  "\u0924\u0942\u0928": 1912,
  "\u2581direction": 1913,
  "\u2581prophets": 1914,
  "\u2581vital": 1915,
  "\u2581\u0906\u0935\u093e\u091c": 1916,
  "\u2581\u092f\u0939\u0941\u0926\u0940": 1917,
  "\u2581People": 1918,
  "\u2581\u0908\u092f\u094b\u092c": 1919,
  "\u2581\u0915\u0947\u0932\u0947\u0932\u0947": 1920,
  "\u2581\u0938\u093e\u0902\u0917": 1921,
  "\u2581\u0938\u094d\u0935\u0924\u0903\u091a\u094d\u092f\u093e": 1922,
  "\u2581determined": 1923,
  "\u2581held": 1924,
  "\u2581\u0924\u093f\u091a\u0940": 1925,
  "\u2581ability": 1926,
  "\u2581\u0917\u0940\u0924": 1927,
  "\u2581\u0932\u093e\u0917\u0942": 1928,
  "\u2581deliver": 1929,
  "\u2581godly": 1930,
  "\u2581\u0926\u094b\u0928\u094d\u0939\u0940": 1931,
  "\u2581\u092a\u093e\u0930": 1932,
  "\u2581P": 1933,
  "\u2581\u0906\u0923\u0932\u0947": 1934,
  "\u2581\u0909\u092a\u0938\u094d\u0925\u093f\u0924": 1935,
  "\u2581\u0916\u094d\u0930\u093f\u0938\u094d\u0924\u093e\u091a\u094d\u092f\u093e": 1936,
  "\u2581\u092a\u0921\u0932\u093e": 1937,
  "\u2581\u092a\u093e\u092f\u0928\u093f\u092f\u0930": 1938,
  "\u2581\u0939\u0932\u094d\u0932\u093e": 1939,
  "\u2581\u092e\u0902\u0926\u093f\u0930\u093e\u0924": 1940,
  "\u2581\u092f\u093e\u0935\u0930\u0942\u0928": 1941,
  "\u2581dwell": 1942,
  "\u2581\u0926\u0939\u093e": 1943,
  "\u2581mighty": 1944,
  "\u2581\u092e\u093f\u0933\u0942": 1945,
  "\u2581\u092f\u0947\u0936\u0942\u091a\u0947": 1946,
  "\u2581throughout": 1947,
  "\u2581\u0926\u0947\u0935\u093e\u0935\u0930": 1948,
  "\u2581\u092d\u0941\u0924": 1949,
  "\u2581\u0939\u094b": 1950,
  "\u2581lot": 1951,
  "\u2581rejoice": 1952,
  "\u2581\u0928\u093e\u0924\u0947\u0938\u0902\u092c\u0902\u0927": 1953,
  "\u2581regarding": 1954,
  "\u2581families": 1955,
  "\u2581perhaps": 1956,
  "\u2581delivered": 1957,
  "\u2581indeed": 1958,
  "\u2581\u0907\u0924\u093f\u0939\u093e\u0938": 1959,
  "\u2581\u092c\u0902\u0927\u0942": 1960,
  "\u2581\u0936\u092e\u0941\u0935\u0947\u0932": 1961,
  "en": 1962,
  "\u2581books": 1963,
  "\u2581\u092a\u094d\u0930\u0940\u0924\u093f": 1964,
  "\u2581third": 1965,
  "\u2581W": 1966,
  "\u2581save": 1967,
  "\u093e\u0902\u0924": 1968,
  "\u2581obey": 1969,
  "Jehovah": 1970,
  "\u2581considered": 1971,
  "\u2581grow": 1972,
  "\u2581visit": 1973,
  "\u2581\u0906\u091c\u0939\u0940": 1974,
  "\u2581\u092a\u093e\u091a": 1975,
  "\u0938\u094d\u0924\u094b": 1976,
  "\u2581\u0915\u0930\u0923\u094d\u092f\u093e\u0915\u0930\u0924\u093e": 1977,
  "\u0936": 1978,
  "\u2581baptism": 1979,
  "\u2581Mark": 1980,
  "\u2581\u092e\u093f\u0933\u093e\u0932\u093e": 1981,
  "\u2581\u0938\u0941\u0935\u093e\u0930\u094d\u0924\u093e": 1982,
  "\u2581Hence": 1983,
  "\u2581altar": 1984,
  "\u2581issue": 1985,
  "\u2581\u0938\u093e\u0935\u0927": 1986,
  "\u2581ground": 1987,
  "\u2581\u091b\u0933": 1988,
  "\u2581\u0928\u093e\u0935\u093e\u091a\u094d\u092f\u093e": 1989,
  "\u2581\u0935\u093e\u091f\u0947\u0932": 1990,
  "\u2581destroy": 1991,
  "\u2581\u0917\u0930\u0940\u092c": 1992,
  "\u2581activities": 1993,
  "\u2581beautiful": 1994,
  "\u2581\u092f\u0947\u0924\u0940\u0932": 1995,
  "\u2581Most": 1996,
  "\u2581\u092a\u094d\u0930\u092d\u0942": 1997,
  "\u2581branch": 1998,
  "\u2581\u0918\u0947\u0924": 1999,
  "\u0915\u0921\u0942\u0928": 2000,
  "\u2581appreciation": 2001,
  "\u2581class": 2002,
  "\u2581\u0924\u093f\u091a\u0947": 2003,
  "\u2581\u092d\u093e\u0937\u093e\u0902\u0924\u0930": 2004,
  "\u2581\u0930\u094b\u092e": 2005,
  "\u2581\u0936\u0930\u0940\u0930": 2006,
  "\u2581Or": 2007,
  "\u2581\u0938\u093e\u092e\u0928\u093e": 2008,
  "\u2581office": 2009,
  "\u2581\u0909\u0924\u094d\u0924\u0930\u0947": 2010,
  "\u2581\u092a\u0924\u0940": 2011,
  "\u2581passed": 2012,
  "\u2581\u092e\u0939\u093e\u0928": 2013,
  "\u2581sun": 2014,
  "\u2581instance": 2015,
  "\u2581start": 2016,
  "\u2581\u0915\u0941\u091f\u0941\u0902\u092c": 2017,
  "\u2581command": 2018,
  "\u2581common": 2019,
  "\u2581\u0906\u092e\u091a\u0940": 2020,
  "\u2581\u091c\u0923\u0942": 2021,
  "\u2581\u092c\u093e\u092f\u092c\u0932\u091a\u093e": 2022,
  "\u2581\u0905\u091c\u0942\u0928": 2023,
  "\u2581appreciate": 2024,
  "\u2581\u0928\u0917\u0930": 2025,
  "\u2581\u092f\u093e\u092c\u0926\u094d\u0926\u0932": 2026,
  "\u093e\u092f\u0932\u093e": 2027,
  "\u2581psalmist": 2028,
  "\u2581working": 2029,
  "\u2581\u0909\u0902\u091a": 2030,
  "to": 2031,
  "\u0917": 2032,
  "\u2581Spirit": 2033,
  "\u2581send": 2034,
  "\u2581\u091c\u094d\u092f\u093e\u0902\u0928\u093e": 2035,
  "\u2581\u0930\u093e\u0937\u094d\u091f\u094d\u0930": 2036,
  "\u25813,": 2037,
  "\u2581problem": 2038,
  "\u2581ready": 2039,
  "\u2581\u0905\u0938\u094b": 2040,
  "\u2581\u0932\u093e\u0917\u0924\u0947": 2041,
  "\u2581conscience": 2042,
  "\u2581filled": 2043,
  "\u2581\u092a\u093e\u0939\u0924": 2044,
  "\u2581gods": 2045,
  "\u2581\u0915\u0930\u0923\u094d\u092f\u093e\u091a\u094d\u092f\u093e": 2046,
  "\u0902\u091a\u094d\u092f\u093e": 2047,
  "\u2581none": 2048,
  "\u2581\u092d\u0930": 2049,
  "\u2581\u092a\u0930\u093f\u092a\u0942\u0930\u094d\u0923": 2050,
  "\u2581promised": 2051,
  "\u2581\u092a\u094d\u0930\u0935\u093e\u0938": 2052,
  "\u2581\u0938\u0902\u0930\u0915\u094d\u0937\u0923": 2053,
  "\u091c": 2054,
  "\u2581itself": 2055,
  "\u2581stated": 2056,
  "\u2581\u092a\u094d\u0930\u093f\u092f": 2057,
  "\u0928\u0902": 2058,
  "\u093e\u0924\u0942\u0928": 2059,
  "\u2581gone": 2060,
  "\u2581happen": 2061,
  "\u2581Watch": 2062,
  "\u2581events": 2063,
  "\u2581enough": 2064,
  "\u2581pages": 2065,
  "\u2581\u0907": 2066,
  "\u2581\u092e\u094d\u0939\u0923\u093e\u0932\u0940": 2067,
  "\u2581choose": 2068,
  "\u2581Holy": 2069,
  "\u2581various": 2070,
  "\u2581\u0938\u0939\u0928": 2071,
  "\u2581silver": 2072,
  "\u2581\u0906\u092e\u091a\u0947": 2073,
  "\u2581daily": 2074,
  "\u2581\u0915\u0947\u0932\u094d\u092f\u093e\u0938": 2075,
  "\u2581accepted": 2076,
  "\u2581available": 2077,
  "\u2581takes": 2078,
  "\u2581\u0917\u094d\u0930\u0940\u0915": 2079,
  "\u2581\u090f\u0915\u092e\u0947\u0915\u093e\u0902": 2080,
  "\u2581\u0936\u093f\u0915\u0942": 2081,
  "\u2581\u0938\u094d\u0935\u0930\u094d\u0917\u093e\u0924": 2082,
  "God": 2083,
  "\u2581afraid": 2084,
  "\u2581caused": 2085,
  "\u2581\u0932\u0947\u0935\u0940": 2086,
  "\u2581half": 2087,
  "\u2581students": 2088,
  "\u25818:": 2089,
  "\u2581role": 2090,
  "\u2581countries": 2091,
  "\u2581ransom": 2092,
  "on": 2093,
  "\u0941\u0928": 2094,
  "\u2581complete": 2095,
  "\u2581surely": 2096,
  "\u2581\u091a\u094d\u092f\u093e": 2097,
  "\u2581destroyed": 2098,
  "\u2581earthly": 2099,
  "\u2581waters": 2100,
  "\u2581wilderness": 2101,
  "\u2581reach": 2102,
  "\u2581\u0916\u094b\u091f\u094d\u092f\u093e": 2103,
  "\u2581\u0926\u093e\u0928": 2104,
  "\u2581\u0915\u093e\u0930\u094d\u092f\u093e\u0924": 2105,
  "\u2581\u092e\u093f\u0938\u0930": 2106,
  "\u2581experienced": 2107,
  "\u2581proved": 2108,
  "\u2581\u0909\u0924\u094d\u0924\u0947\u091c\u0928": 2109,
  "\u2581Give": 2110,
  "\u2581\u0918\u0947\u0924\u094b": 2111,
  "\u2581\u0924\u0947\u091a": 2112,
  "\u2581\u0930\u093e\u0939\u0924\u094b": 2113,
  "\u25818,": 2114,
  "\u2581created": 2115,
  "\u2581\u0926\u0947\u0935\u0926\u0942\u0924": 2116,
  "\u2581several": 2117,
  "\u2581\u0906\u092e\u091a\u093e": 2118,
  "\u2581\u0938\u093e\u0902\u0917\u0924\u0947": 2119,
  "\u2581\u0905\u0938\u0932\u0947\u0932\u093e": 2120,
  "\u2581\u0926\u0947\u0908\u0928": 2121,
  "\u2581\u092d\u0930\u092a\u0942\u0930": 2122,
  "\u2581lay": 2123,
  "\u2581\u0930\u093e\u091c\u093e\u0928\u0947": 2124,
  "\u2581\u0920\u0947\u0935\u0942": 2125,
  "\u2581\u092d\u092f": 2126,
  "\u2581\u0938\u0947\u0935\u0947\u0924": 2127,
  "\u2581States": 2128,
  "\u2581gathered": 2129,
  "\u2581\u0915\u0947\u0932\u094d\u092f\u093e\u0928\u0947": 2130,
  "\u2581\u091a\u093f\u0902\u0924\u093e": 2131,
  "\u2581\u0905\u0925\u0935\u093e": 2132,
  "\u2581\u091c\u092e\u0940\u0928": 2133,
  "\u2581\u0938\u093e\u0902\u0917\u093f\u0924\u0932\u094d\u092f\u093e": 2134,
  "\u0923\u0947": 2135,
  "\u258128": 2136,
  "\u2581recorded": 2137,
  "\u2581\u092a\u0924\u094d\u0930": 2138,
  "\u2581behind": 2139,
  "\u2581presence": 2140,
  "\u2581tried": 2141,
  "\u2581\u0938\u093e\u0902\u0917\u0924": 2142,
  "\u2581\u25aa": 2143,
  "\u2581courage": 2144,
  "\u2581daughters": 2145,
  "\u2581\u0915\u093e\u0939\u0940\u0924\u0930\u0940": 2146,
  "\u2581\u0927\u0940\u0930": 2147,
  "\u2581easy": 2148,
  "\u2581respond": 2149,
  "\u2581short": 2150,
  "\u2581\u091a\u093e\u0932\u0942": 2151,
  "\u2581explained": 2152,
  "\u2581pain": 2153,
  "\u258118.": 2154,
  "\u2581followed": 2155,
  "\u258115:": 2156,
  "\u2581wives": 2157,
  "\u0939\u093e": 2158,
  "\u2581\u092a\u0930\u093e\u092d\u0935": 2159,
  "\u2581\u0935\u091a\u0928\u093e\u0924": 2160,
  "ness": 2161,
  "\u2581position": 2162,
  "p": 2163,
  "\u0941": 2164,
  "\u2581PAGE": 2165,
  "\u2581advice": 2166,
  "\u2581\u0938\u093e\u0902\u0917\u093e": 2167,
  "\u2581See": 2168,
  "\u2581clearly": 2169,
  "\u2581\u0906\u092a\u0923\u0939\u0940": 2170,
  "\u2581looking": 2171,
  "/": 2172,
  "\u2581\u091a\u094c\u0915\u091f": 2173,
  "\u2581\u0938\u093e\u0915\u094d\u0937": 2174,
  "\u25816,": 2175,
  "\u2581enter": 2176,
  "\u2581languages": 2177,
  "\u2581\u0915\u092c\u0942\u0932": 2178,
  "\u2581\u092a\u093e\u0939\u0924\u093e": 2179,
  "\u0939": 2180,
  "\u2581image": 2181,
  "\u2581sign": 2182,
  "\u2581\u0938\u0941\u0930\u0915\u094d\u0937\u093f\u0924": 2183,
  "%": 2184,
  "\u2581beginning": 2185,
  "\u2581government": 2186,
  "\u2581\u0909\u0924\u094d\u092a\u0928\u094d": 2187,
  "\u2581Just": 2188,
  "\u2581influence": 2189,
  "\u2581learning": 2190,
  "\u2581destruction": 2191,
  "\u2581killed": 2192,
  "\u25819,": 2193,
  "\u2581chief": 2194,
  "\u2581seem": 2195,
  "\u2581\u092a\u0930\u092e\u0947\u0936\u094d\u0935\u0930\u093e\u091a\u0940": 2196,
  "\u0925": 2197,
  "\u2581week": 2198,
  "\u2581\u0906\u092a\u0932\u0902": 2199,
  "\u2581battle": 2200,
  "\u2581express": 2201,
  "\u2581\u092f\u094b\u0938\u0947\u092b": 2202,
  "\u091c\u0935\u0933": 2203,
  "\u2581actions": 2204,
  "\u2581play": 2205,
  "\u0915\u0930\u0924\u093e": 2206,
  "\u2581area": 2207,
  "\u2581inheritance": 2208,
  "\u2581\u091c\u0917\u093e\u0924\u0940\u0932": 2209,
  "\u2581Life": 2210,
  "\u2581lie": 2211,
  "\u2581regular": 2212,
  "\u2581\u0916\u094b\u091f\u0947": 2213,
  "\u2581\u092a\u094d\u0930\u0915\u093e\u0930\u091a\u094d\u092f\u093e": 2214,
  "\u2581Eve": 2215,
  "\u2581modern": 2216,
  "\u2581\u0905\u0938\u0942\u0928": 2217,
  "\u2581helping": 2218,
  "\u2581\u0918\u0947\u0923\u0947": 2219,
  "\u2581\u0926\u094d\u092f\u093e\u0935\u0947": 2220,
  "\u2581concern": 2221,
  "\u2581watch": 2222,
  "\u2581\u0926\u0941\u0938\u0930\u093e": 2223,
  "\u2581\u0935\u094d\u092f\u093e": 2224,
  "\u2581\u0915\u0926\u0930": 2225,
  "\u2581\u0926\u0947\u0923\u093e\u0930": 2226,
  "\u2581\u0928\u0926\u0940": 2227,
  "\u2581\u092a\u0941\u0928\u0930\u0941\u0924\u094d\u0925\u093e\u0928": 2228,
  "\u2581\u092e\u0928\u0928": 2229,
  "\u2581room": 2230,
  "\u25815,": 2231,
  "\u2581alive": 2232,
  "\u2581less": 2233,
  "\u2581\u0915\u0930\u093f\u0902\u0925\u0915\u0930": 2234,
  "\u2581laid": 2235,
  "\u2581\u090f\u0916\u093e\u0926\u093e": 2236,
  "\u2581\u0924\u094d\u0930\u093e\u0938": 2237,
  "\u2581True": 2238,
  "\u2581assignment": 2239,
  "\u2581develop": 2240,
  "\u2581\u0969\u096a": 2241,
  "\u2581justice": 2242,
  "\u2581opened": 2243,
  "\u2581responsibility": 2244,
  "\u2581\u092c\u094b\u0932\u0932\u093e": 2245,
  "\u2581First": 2246,
  "\u2581endure": 2247,
  "\u2581\u091c\u093e\u0923\u093e\u0930": 2248,
  "\u2581\u0938\u092e\u093e\u0935\u0947\u0936": 2249,
  "\u2581elder": 2250,
  "\u2581\u0926\u093e\u0938": 2251,
  "\u2581\u0936\u0939\u0930\u093e\u0924": 2252,
  "\u2581beyond": 2253,
  "\u2581forget": 2254,
  "\u2581speech": 2255,
  "\u2581\u0935\u093f\u0936\u093f\u0937\u094d\u091f": 2256,
  "\u0926\u094d\u0935\u093e\u0930\u0947": 2257,
  "\u2581reasons": 2258,
  "\u2581\u0909\u092d\u093e": 2259,
  "\u2581display": 2260,
  "\u2581\u0916\u0930\u0940": 2261,
  "\u2581looked": 2262,
  "\u2581subject": 2263,
  "\u2581\u0932\u094b\u0915\u093e\u0902\u0935\u0930": 2264,
  "\u2581\u0935\u0947\u0917\u0935\u0947\u0917\u0933\u094d\u092f\u093e": 2265,
  "\u2581prayed": 2266,
  "\u2581prepared": 2267,
  "\u2581provides": 2268,
  "\u2581stop": 2269,
  "\u2581\u092e\u093f\u0933\u0923\u093e\u0930": 2270,
  "us": 2271,
  "\u2581period": 2272,
  "\u2581\u090f\u0915\u0928\u093f\u0937\u094d\u0920": 2273,
  "\u2581\u0917\u0902\u092d\u0940\u0930": 2274,
  "\u2581\u0924\u0930\u0940\u0939\u0940": 2275,
  "\u2581\u092d\u092f\u0902\u0915\u0930": 2276,
  "\u2581\u092f\u0941\u0926\u094d\u0927": 2277,
  "\u2581acts": 2278,
  "\u2581harmony": 2279,
  "\u2581\u0930\u093e\u091c\u093e\u0932\u093e": 2280,
  "\u2581guidance": 2281,
  "\u2581\u091c\u093e\u0924\u0940\u0932": 2282,
  "\u2581\u0935\u093f\u0930\u094b\u0927": 2283,
  "\u25aa": 2284,
  "\u258140": 2285,
  "\u2581church": 2286,
  "\u2581creation": 2287,
  "\u2581\u0936\u093f\u0915\u094d\u0937\u0915": 2288,
  "\u2581line": 2289,
  "\u2581source": 2290,
  "\u2581\u091a\u0942\u0915": 2291,
  "\u2581\u0938\u094d\u0935\u0930\u094d\u0917\u0940\u092f": 2292,
  "\u2581Keep": 2293,
  "\u2581chosen": 2294,
  "\u2581suffer": 2295,
  "\u2581worldwide": 2296,
  "\u2581Jewish": 2297,
  "\u2581Though": 2298,
  "\u2581fight": 2299,
  "\u2581practical": 2300,
  "\u2581training": 2301,
  "\u0902\u091a\u0947": 2302,
  "\u2581affect": 2303,
  "\u2581eye": 2304,
  "\u2581\u0924\u0940\u092e\u0925\u094d\u092f": 2305,
  "\u2581\u092d\u093e\u0937\u0923": 2306,
  "\u092e\u0932\u093e": 2307,
  "\u2581occasion": 2308,
  "\u2581sacrifices": 2309,
  "\u2581mate": 2310,
  "\u2581sound": 2311,
  "\u2581trials": 2312,
  "\u2581\u092e\u094d\u0939\u0923\u091c\u0947\u091a": 2313,
  "\u2581\u092a\u0942": 2314,
  "\u2581\u092a\u094d\u0930\u0917\u0924\u0940": 2315,
  "\u2581\u0930\u093e\u0939\u0924": 2316,
  "\u2581\u0936\u094d\u0930\u0947\u092f": 2317,
  "\u2581\u0938\u0917\u0933\u0947": 2318,
  "\u2581actually": 2319,
  "\u2581judge": 2320,
  "\u2581sexual": 2321,
  "\u2581\u092a\u094d\u0930\u092e\u093e\u0923\u093e\u0924": 2322,
  "\u2581\u092a\u0930\u0940\u0915\u094d\u0937\u093e": 2323,
  "\u2581violence": 2324,
  "\u2581\u0939\u0935\u0947": 2325,
  "\u2581army": 2326,
  "\u2581\u0928\u093e\u0939\u0940\u0938": 2327,
  "\u2581\u0935\u093f\u0928\u0902\u0924\u0940": 2328,
  "\u2581Go": 2329,
  "\u2581\u0926\u093e\u0916\u0935\u0942\u0928": 2330,
  "\u2581\u092a\u0936\u094d": 2331,
  "\u2581million": 2332,
  "\u2581tongue": 2333,
  "\u2581\u091a\u093f\u0924\u091a": 2334,
  "\u2581\u092f\u0936": 2335,
  "\u2581changes": 2336,
  "\u2581chapter": 2337,
  "\u2581\u0924\u093e\u0930\u0923": 2338,
  "\u2581\u092d\u093e": 2339,
  "\u2581\u092f\u093e\u0902\u091a\u0947": 2340,
  "\u2581\u0938\u0902\u0926\u0947\u0937\u094d\u091f\u093e": 2341,
  "\u2581Witness": 2342,
  "\u2581activity": 2343,
  "\u2581\u0905\u0939\u0935\u093e\u0932": 2344,
  "\u2581\u0915\u092a\u0921\u0947": 2345,
  "\u258119.": 2346,
  "\u2581described": 2347,
  "\u2581\u0926\u0947\u0923\u0947": 2348,
  "\u25819:": 2349,
  "\u2581Brother": 2350,
  "\u2581\u0907\u0902\u0917\u094d\u0930\u091c\u0940": 2351,
  "\u2581\u092c\u0933\u0940": 2352,
  "\u2581\u0936\u093f\u0937\u094d\u092f\u093e\u0902\u0928\u093e": 2353,
  "\u2581K": 2354,
  "\u2581flock": 2355,
  "\u2581regularly": 2356,
  "\u2581\u0926": 2357,
  "\u2581building": 2358,
  "\u2581hour": 2359,
  "\u2581single": 2360,
  "\u2581teachings": 2361,
  "\u2581\u0905\u0938\u0932\u093e": 2362,
  "\u2581\u0905\u0938\u0947\u091a": 2363,
  "\u2581\u0928\u0947\u0932\u0947": 2364,
  "\u2581appropriate": 2365,
  "\u2581decided": 2366,
  "\u2581favor": 2367,
  "\u2581results": 2368,
  "\u2581\u0935\u093e\u091f\u0942": 2369,
  "ar": 2370,
  "\u2581\u0924\u092f\u093e\u0930\u0940": 2371,
  "\u2581\u0928\u0935\u094d\u0939\u0924\u0902": 2372,
  "\u258124:": 2373,
  "\u2581Aaron": 2374,
  "\u2581foretold": 2375,
  "\u2581Roman": 2376,
  "\u2581thousands": 2377,
  "\u2581\u0905\u092c\u094d\u0930\u093e\u0939\u093e\u092e": 2378,
  "\u2581\u092e\u0947\u0902\u0922\u092a\u093e\u0933": 2379,
  "\u258124": 2380,
  "\u2581job": 2381,
  "\u2581\u092f\u0936\u0938\u094d\u0935\u0940": 2382,
  "\u2581\u092f\u093e\u0902\u091a\u0940": 2383,
  "R": 2384,
  "less": 2385,
  "\u2581car": 2386,
  "\u2581carried": 2387,
  "\u2581inhabitants": 2388,
  "\u2581\u0905\u0930\u094d\u0925\u093e\u0928\u0947": 2389,
  "\u2581\u0938\u092e\u0941\u0926\u094d\u0930": 2390,
  "\u2581desires": 2391,
  "\u2581humble": 2392,
  "\u2581lands": 2393,
  "\u2581\u0905\u0936\u093e\u092a\u094d\u0930\u0915\u093e\u0930\u0947": 2394,
  "\u2581\u0928\u0935\u094d\u092f\u093e": 2395,
  "ach": 2396,
  "If": 2397,
  "\u2581answers": 2398,
  "\u2581fulfilled": 2399,
  "\u2581moral": 2400,
  "\u2581wait": 2401,
  ",...": 2402,
  "\u2581U": 2403,
  "\u2581\u0928\u0937\u094d\u091f": 2404,
  "\u2581\u092e\u0948\u0924\u094d\u0930\u0940": 2405,
  "\u2581R": 2406,
  "\u2581showing": 2407,
  "\u2581focus": 2408,
  "\u2581seeking": 2409,
  "\u2581\u0935\u0948\u092f\u0915\u094d": 2410,
  "\u2581\u0924\u0933\u091f\u0940\u092a": 2411,
  "\u0928\u0940": 2412,
  "\u2581birth": 2413,
  "\u2581least": 2414,
  "\u2581\u091d\u093e\u0932\u094d\u092f\u093e\u0935\u0930": 2415,
  "\u2581\u092a\u093e\u092f": 2416,
  "\u2581\u092e\u091c\u092c\u0942\u0924": 2417,
  "\u2581attend": 2418,
  "\u2581\u0905\u0938\u093e\u0935\u093e": 2419,
  "\u2581\u0939\u091c\u093e\u0930": 2420,
  "\u2581discipline": 2421,
  "\u2581encouraged": 2422,
  "\u2581shown": 2423,
  "\u2581\u092d\u093e\u0937\u0947\u0924": 2424,
  "\u2581Take": 2425,
  "\u2581earlier": 2426,
  "\u2581published": 2427,
  "\u258114,": 2428,
  "\u2581imperfect": 2429,
  "\u2581\u092e\u093e\u0930\u0932\u0947": 2430,
  "\u2581\u0935\u093f\u0937\u092f": 2431,
  "\u092b": 2432,
  "\u2581hours": 2433,
  "\u2581Hall": 2434,
  "\u2581cry": 2435,
  "\u2581laws": 2436,
  "\u2581natural": 2437,
  "\u2581\u0938\u093e\u0902\u0917\u0942": 2438,
  "\u094d\u092f": 2439,
  "\u2581commandments": 2440,
  "\u2581knowing": 2441,
  "\u2581state": 2442,
  "\u2581\u092c\u094b\u0932\u0942": 2443,
  "\u2581\u0939\u0935\u0940": 2444,
  "\u093e\u092e\u0927\u094d\u092f\u0947": 2445,
  "\u2581fulfillment": 2446,
  "\u2581whatever": 2447,
  "\u2581\u0926\u0947\u0923\u094d\u092f\u093e\u0938\u093e\u0920\u0940": 2448,
  "\u2581\u092a\u094d\u0930\u0915\u091f\u0940\u0915\u0930\u0923": 2449,
  "\u2581\u092a\u094d\u0930\u0940\u0924\u0940": 2450,
  "\u2581\u0930\u093e\u0939\u0924\u093e\u0924": 2451,
  "\u2581\u0938\u0948\u0928\u093f\u0915": 2452,
  "\u2581explains": 2453,
  "\u2581\u0906\u0932\u094b": 2454,
  "\u2581\u092e\u0941\u0933\u0940\u091a": 2455,
  "\u2581\u0924\u094d\u092f\u093e\u092a\u094d\u0930\u092e\u093e\u0923\u0947": 2456,
  "\u2581\u092a\u0921\u0932\u0947": 2457,
  "\u2581\u0938\u0902\u0916\u094d\u092f\u093e": 2458,
  "\u2581ark": 2459,
  "\u2581convention": 2460,
  "\u2581\u092e\u093e\u0923\u0938\u093e\u0932\u093e": 2461,
  "M": 2462,
  "\u2581Pharaoh": 2463,
  "\u2581mountain": 2464,
  "\u2581\u092e\u0942\u0933": 2465,
  "\u2581\u092f\u0947\u0923\u093e\u0931\u094d": 2466,
  "\u2581Footnote": 2467,
  "\u2581Gilead": 2468,
  "\u2581Tower": 2469,
  "\u2581\u0926\u094d\u0935\u0947\u0937": 2470,
  "\u2581proper": 2471,
  "\u2581\u0938\u094d\u0935\u0940\u0915\u093e\u0930": 2472,
  "\u2581\u092e\u0942\u0930\u094d\u0916": 2473,
  "\u2581art": 2474,
  "\u2581darkness": 2475,
  "\u2581include": 2476,
  "\u2581revealed": 2477,
  "\u2581\u0905\u091a\u0942\u0915": 2478,
  "\u25814,": 2479,
  "\u2581\u0905\u0927\u093f\u0915\u093e\u0930\u0940": 2480,
  "\u2581\u092f\u094b\u091c\u0928\u093e": 2481,
  "\u2581French": 2482,
  "\u2581Love": 2483,
  "\u2581\u092a\u0930\u0940\u0915\u094d\u0937\u0923": 2484,
  "\u2581\u092e\u094d\u0939\u0923\u0923\u0947": 2485,
  "\u2581\u0938\u092c\u0902\u0927": 2486,
  "\u093e\u0902\u092a\u0948\u0915\u0940": 2487,
  "\u2581Before": 2488,
  "\u2581Elijah": 2489,
  "\u2581break": 2490,
  "\u2581\u092e\u093f\u0933\u0942\u0928": 2491,
  "\u2581accurate": 2492,
  "\u2581worked": 2493,
  "\u2581illustration": 2494,
  "\u2581\u091a\u092e\u0924\u094d\u0915\u093e\u0930": 2495,
  "\u2581\u0928\u093e\u0935\u093e\u091a\u093e": 2496,
  "\u2581\u092c\u093e\u092f\u092c\u0932\u091a\u094d\u092f\u093e": 2497,
  "\u2581\u0935\u093f\u091c\u092f": 2498,
  "We": 2499,
  "\u2581J": 2500,
  "\u2581\u0918\u0947\u0923\u094d\u092f\u093e\u0938\u093e\u0920\u0940": 2501,
  "\u2581\u092c\u093e\u0902\u0927\u0935\u093e\u0902\u0928\u093e": 2502,
  "\u2581studying": 2503,
  "\u2581\u0905\u0924\u094d\u092f\u0902\u0924": 2504,
  "\u2581\u092a\u093e\u0939\u093f\u091c\u0947\u0924": 2505,
  "\u2581challenge": 2506,
  "\u2581prison": 2507,
  "\u2581walking": 2508,
  "\u2581\u0936\u094d\u0930\u0940\u092e\u0902\u0924": 2509,
  "\u2581\u0969\u096d": 2510,
  "\u2581\u0936\u0915\u0923\u093e\u0930": 2511,
  "\u2581Nevertheless": 2512,
  "\u2581burnt": 2513,
  "\u2581\u0907\u0924\u0915\u093e": 2514,
  "\u2581\u0915\u0947\u0932\u0947\u0932\u0940": 2515,
  "\u2581\u0915\u094d\u0930\u092e\u093e\u0902\u0915": 2516,
  "\u2581\u092c\u093e\u091c\u0942\u0932\u093e": 2517,
  "\u2581\u092e\u0942\u0930\u094d\u0924\u0940": 2518,
  "ers": 2519,
  "\u2581Later": 2520,
  "\u2581force": 2521,
  "\u2581freedom": 2522,
  "\u2581quickly": 2523,
  "\u2581\u0915\u0947\u0935\u094d\u0939\u093e": 2524,
  "\u2581\u0935\u0902\u0936\u091c": 2525,
  "\u0928\u0940\u0924\u093f\u0938\u0942\u0924\u094d\u0930\u0947": 2526,
  "\u2581Credit": 2527,
  "\u2581entire": 2528,
  "\u2581reflect": 2529,
  "\u2581\u0928\u092e\u094d\u0930": 2530,
  "\u2581\u0936\u093e\u0902\u0924": 2531,
  "O": 2532,
  "\u2581\u0915\u093e\u0933\u093e\u0924\u0940\u0932": 2533,
  "\u2581\u0918\u091f\u0928\u093e": 2534,
  "\u2581invited": 2535,
  "\u2581\u090f\u0916\u093e\u0926\u0940": 2536,
  "\u2581\u0935\u093f\u0936\u0947\u0937": 2537,
  "\u2581\u0920\u0947\u0935\u0942\u0928": 2538,
  "\u2581\u0926\u093e\u0916\u0935\u0942": 2539,
  "\u2581\u092e\u0902\u0921\u0933\u0940": 2540,
  "\u2581\u0938\u0939\u093e": 2541,
  "\u092e\u093e\u091d\u094d\u092f\u093e": 2542,
  "\u2581standing": 2543,
  "\u2581\u090f\u0915\u091a": 2544,
  "\u2581\u0915\u094b\u0920\u0947": 2545,
  "\u2581\u0916\u0930\u094d\u091a": 2546,
  "\u2581\u0906\u0926\u093e\u092e": 2547,
  "\u2581\u092e\u0924": 2548,
  "\u2581sick": 2549,
  "\u2581\u0938\u093e\u0902\u0917\u0923\u094d\u092f\u093e\u0924": 2550,
  "\u2581mountains": 2551,
  "\u2581outside": 2552,
  "\u2581\u092e\u0941\u0915\u094d": 2553,
  "\u2581\u0936\u0915\u0947\u0932": 2554,
  "f": 2555,
  "\u2581crowd": 2556,
  "\u2581interests": 2557,
  "\u2581\u0905\u0928\u094d\u0928": 2558,
  "\u2581\u092a\u0941\u0938\u094d\u0924\u0915\u093e\u0924": 2559,
  "\u2581\u092e\u094c\u0932\u094d\u092f\u0935\u093e\u0928": 2560,
  "is": 2561,
  "\u2581pure": 2562,
  "\u2581\u092b\u0930\u0915": 2563,
  "\u2581\u092c\u0941\u0930\u0942\u091c": 2564,
  "\u2581Levites": 2565,
  "\u2581addition": 2566,
  "\u2581individual": 2567,
  "\u2581report": 2568,
  "\u2581reward": 2569,
  "\u2581steps": 2570,
  "\u2581wrath": 2571,
  "\u2581\u0928\u093f\u0918\u0942\u0928": 2572,
  "\u2581\u0938\u0928\u094d\u092e\u093e\u0928": 2573,
  "\u2581\u0938\u093f\u0926\u094d\u0927": 2574,
  "\u2581expression": 2575,
  "\u2581\u092c\u093e\u0933\u0917\u0942": 2576,
  "\u2581Society": 2577,
  "\u2581\u096a\u0966": 2578,
  "\u2581kill": 2579,
  "\u2581\u0905\u0938\u0923\u0947": 2580,
  "\u2581\u092d\u093e\u0935": 2581,
  "h": 2582,
  "\u2581sat": 2583,
  "\u2581spread": 2584,
  "\u2581\u092e\u0941\u0932\u0917\u0940": 2585,
  "\u2581positive": 2586,
  "\u2581\u091f\u0947\u0939\u0933\u0923\u0940": 2587,
  "\u2581Another": 2588,
  "\u2581brings": 2589,
  "\u2581manner": 2590,
  "\u2581pay": 2591,
  "\u2581\u092b\u094b\u0928": 2592,
  "\u2581\u091f\u093f\u0915": 2593,
  "\u2581\u092a\u093e\u0920\u0935\u0932\u0947": 2594,
  "\u2581\u092a\u093e\u0932\u0915": 2595,
  "\u2581\u092a\u094d\u0930\u093e\u0923\u0940": 2596,
  "\u2581\u0935\u094d\u0939\u093e\u0935\u0947": 2597,
  "\u2581gate": 2598,
  "\u2581\u092e\u0941\u0932\u0917\u0947": 2599,
  "\u2581\u0939\u093e\u091a": 2600,
  "\u2581Matt": 2601,
  "\u2581oil": 2602,
  "\u2581parts": 2603,
  "\u2581\u0930\u0940\u0924\u094d\u092f\u093e": 2604,
  "\u2581cultivate": 2605,
  "\u2581teacher": 2606,
  "\u2581\u091a\u093e": 2607,
  "\u2581\u0924\u093f\u0915": 2608,
  "\u2581throne": 2609,
  "\u2581warning": 2610,
  "\u258126": 2611,
  "\u2581names": 2612,
  "\u2581quality": 2613,
  "\u2581\u0909\u092a\u0932\u092c\u094d\u0927": 2614,
  "\u2581\u0932\u094b\u0915\u093e\u0902\u0938": 2615,
  "\u2581\u0935\u0930\u094d\u0937\u093e\u0902\u091a\u093e": 2616,
  "B": 2617,
  "\u2581allowed": 2618,
  "\u2581\u0910\u0915\u0942": 2619,
  "\u2581\u0926\u0943\u0922": 2620,
  "\u2581\u0928\u0940\u0924\u093f\u092e\u093e\u0928": 2621,
  "\u2581behalf": 2622,
  "\u2581realize": 2623,
  "It": 2624,
  "\u2581\u091f\u093e\u0915\u0932\u0947": 2625,
  "\u2581\u0924\u094d\u092f\u093e\u0917": 2626,
  "\u2581\u0928\u093e\u0902\u091a\u0940": 2627,
  "\u2581\u0932\u0935\u0915\u0930": 2628,
  "\u2581encouragement": 2629,
  "\u2581neighbor": 2630,
  "\u2581\u0926\u093e\u0916\u0935\u0932\u0940": 2631,
  "\u2581\u0935\u0947\u0917\u0933\u0947": 2632,
  "\u2581lack": 2633,
  "\u2581\u0924\u094d\u092f\u093e\u0902\u091a\u094d\u092f\u093e\u0936\u0940": 2634,
  "\u2581\u091c\u0947\u0925\u0947": 2635,
  "\u2581\u091d\u093e\u0932\u094b": 2636,
  "\u2581\u0926\u093f\u0932\u094d\u092f\u093e": 2637,
  "\u258117:": 2638,
  "\u2581becoming": 2639,
  "\u2581firm": 2640,
  "\u2581millions": 2641,
  "\u2581spake": 2642,
  "\u093e\u092a\u0947\u0915\u094d\u0937\u093e": 2643,
  "\u2581benefits": 2644,
  "\u2581\u0917\u094b\u0937\u094d\u091f\u0940\u0902\u091a\u093e": 2645,
  "\u2581\u0936\u0902\u0915\u093e": 2646,
  "\u2581Thou": 2647,
  "\u2581established": 2648,
  "\u2581\u0906\u0928\u0902\u0926\u093e\u0928\u0947": 2649,
  "\u2581\u0915\u0930\u0923\u094d\u092f\u093e\u0926\u094d\u0935\u093e\u0930\u0947": 2650,
  "\u2581\u0924\u0941\u0932\u0928\u093e": 2651,
  "\u25817,": 2652,
  "\u2581greatest": 2653,
  "\u2581humility": 2654,
  "\u2581trees": 2655,
  "\u2581Us": 2656,
  "\u2581\u0935\u093e\u091a\u0928": 2657,
  "Do": 2658,
  "\u258110,": 2659,
  "\u2581broken": 2660,
  "\u2581encourage": 2661,
  "\u2581former": 2662,
  "\u2581riches": 2663,
  "\u2581text": 2664,
  "\u2581vision": 2665,
  "\u2581\u0935\u093e\u0922\u0924": 2666,
  "\u2581\u0939\u093e\u0924\u093e\u0924": 2667,
  "\u2581Philistines": 2668,
  "\u2581G": 2669,
  "\u2581Great": 2670,
  "\u2581\u0928\u094b\u0915\u0930\u0940": 2671,
  "\u25812,": 2672,
  "\u2581Others": 2673,
  "\u2581goal": 2674,
  "\u2581master": 2675,
  "\u2581offerings": 2676,
  "\u2581\u0905\u0935\u0932\u0902\u092c\u0942\u0928": 2677,
  "\u2581\u0915\u093f\u0924\u094d\u092f\u0947\u0915": 2678,
  "\u2581\u092c": 2679,
  "\u2581added": 2680,
  "\u2581protect": 2681,
  "\u2581\u0924\u094d\u092f\u093e\u092c\u0926\u094d\u0926\u0932": 2682,
  "\u2581\u092c\u094b\u0932\u0923\u0947": 2683,
  "\u258120.": 2684,
  "\u2581trying": 2685,
  "\u2581twenty": 2686,
  "\u2581\u0917\u0947\u0932\u094d\u092f\u093e": 2687,
  "\u2581\u092e\u0941\u0932\u093e\u0932\u093e": 2688,
  "\u2581\u0938\u0941\u091f\u0915\u093e": 2689,
  "\u258121": 2690,
  "\u2581Remember": 2691,
  "\u2581sleep": 2692,
  "\u2581\u0926\u0930": 2693,
  "\u2581\u0926\u093e\u0935\u0940\u0926\u093e\u0928\u0947": 2694,
  "\u2581\u0926\u093f\u0938\u0924\u0947": 2695,
  "\u2581\u0936\u0947\u0935\u091f\u0932": 2696,
  "\u2581\u0905\u0938\u0932\u0940": 2697,
  "\u2581\u0924\u094b\u091a": 2698,
  "\u2581\u0926\u0943\u0937\u094d\u091f\u0940\u0928\u0947": 2699,
  "\u2581practice": 2700,
  "\u2581observe": 2701,
  "\u2581record": 2702,
  "\u2581\u0915\u0930\u093e\u0932": 2703,
  "\u2581\u091a\u093e\u0932\u0924": 2704,
  "\u2581\u0930\u094b\u092e\u0915\u0930": 2705,
  "\u2581\u0938\u0902\u092a\u0924\u094d\u0924\u0940": 2706,
  "\u258111,": 2707,
  "\u2581choice": 2708,
  "\u2581tribulation": 2709,
  "\u2581\u0913\u0933\u0916": 2710,
  "\u2581\u0926\u0941\u0930\u094d\u0932\u0915\u094d\u0937": 2711,
  "\u2581\u0927\u0948\u0930\u094d\u092f": 2712,
  "\u2581\u0928\u0917\u0930\u093e\u0924": 2713,
  "\u2581evening": 2714,
  "\u2581interested": 2715,
  "\u2581personality": 2716,
  "\u2581\u092a\u0941\u0930\u093e\u0935\u093e": 2717,
  "\u2581\u0935\u0930\u094d\u0937": 2718,
  "\u2581\u0915\u0930\u093e\u092f\u091a\u0940": 2719,
  "\u2581\u0920\u0930\u0947\u0932": 2720,
  "\u2581\u0928\u093f\u0930\u093e\u0936": 2721,
  "\u2581\u0935\u093e\u0922": 2722,
  "\u258112,": 2723,
  "\u2581prepare": 2724,
  "\u2581\u0938\u0902\u0915\u091f": 2725,
  "\u092a\u0923\u093e": 2726,
  "\u2581stone": 2727,
  "\u2581\u0917\u0941\u0932\u093e\u092e": 2728,
  "\u2581\u092a\u0943\u0937\u094d\u0920\u0947": 2729,
  "\u2581\u092a\u094d\u0930\u0915\u091f": 2730,
  "\u2581\u0938\u094d\u092a\u0937\u094d\u091f\u092a\u0923\u0947": 2731,
  "\u2581dedicated": 2732,
  "\u2581multitude": 2733,
  "\u2581seeing": 2734,
  "\u2581spent": 2735,
  "\u2581test": 2736,
  "\u2581\u0916\u0930\u0902": 2737,
  "\u2581\u0936\u093e\u0938\u0928": 2738,
  "\u2581Also": 2739,
  "\u2581\u090f\u0915\u092e\u0947\u0915\u093e\u0902\u0928\u093e": 2740,
  "D": 2741,
  "\u2581key": 2742,
  "\u2581shepherd": 2743,
  "\u2581tribe": 2744,
  "\u2581animals": 2745,
  "\u2581pressure": 2746,
  "\u2581\u0917\u094b\u0933\u093e": 2747,
  "\u2581\u0918\u0947\u0923\u094d\u092f\u093e\u0938": 2748,
  "\u2581\u0926\u0947\u0923\u094d\u092f\u093e\u091a\u0940": 2749,
  "\u2581\u092a\u093e\u0920\u0935\u093f\u0932\u0947": 2750,
  "\u2581paradise": 2751,
  "\u2581\u091c\u094d\u092f\u093e\u0932\u093e": 2752,
  "\u2581\u0920\u093f\u0915\u093e\u0923": 2753,
  "\u2581\u092f\u093f\u0930\u094d\u092e\u092f\u093e": 2754,
  "k": 2755,
  "\u0939\u0942\u0928": 2756,
  "\u2581either": 2757,
  "\u2581getting": 2758,
  "\u2581immediately": 2759,
  "\u2581necessary": 2760,
  "\u2581\u0906\u092f\u0941\u0937\u094d\u092f": 2761,
  "\u2581ahead": 2762,
  "\u2581basis": 2763,
  "\u2581princes": 2764,
  "\u2581\u0924\u0930\u0940\u092a\u0923": 2765,
  "\u2581\u0930\u093e\u091c\u093e\u091a\u094d\u092f\u093e": 2766,
  "\u2581\u0938\u094b\u092a\u0947": 2767,
  "\u0923\u093e\u0930": 2768,
  "\u2581\u0924\u094d\u092f\u093e\u0928\u0902": 2769,
  "\u2581\u092e\u094b\u0936\u0947\u0928\u0947": 2770,
  "\u2581\u0939\u093e\u0924\u0940": 2771,
  "\u0938\u0947": 2772,
  "\u2581SONGS": 2773,
  "\u2581arrived": 2774,
  "\u2581believed": 2775,
  "\u2581brethren": 2776,
  "\u2581expect": 2777,
  "\u2581lesson": 2778,
  "\u2581missionary": 2779,
  "\u2581\u0938\u092e\u093e\u0927\u093e\u0928": 2780,
  "\u2581enemy": 2781,
  "\u2581goals": 2782,
  "\u2581sometimes": 2783,
  "\u2581\u0930\u093e\u0939\u0942\u0928": 2784,
  "\u2581\u0969\u096b": 2785,
  "\u00a9": 2786,
  "\u2581condition": 2787,
  "\u2581youth": 2788,
  "\u2581\u0938\u0941\u0930\u0935\u093e\u0924": 2789,
  "\u0936\u093e": 2790,
  "\u2581deeply": 2791,
  "\u2581fail": 2792,
  "\u2581literature": 2793,
  "\u2581\u0907\u0924\u0915\u0940": 2794,
  "\u2581\u090f\u0915\u093e\u091a": 2795,
  "\u2581\u092c\u093e\u0933": 2796,
  "\u2581\u092d\u0942\u092e\u093f\u0915\u093e": 2797,
  "He": 2798,
  "\u2581delight": 2799,
  "\u2581seems": 2800,
  "\u2581\u092f\u093e\u0902\u092a\u0948\u0915\u0940": 2801,
  "\u0932\u094b": 2802,
  "\u2581almost": 2803,
  "\u2581\u0926\u093f\u0932\u0947\u0932\u0947": 2804,
  "\u2581\u0935\u093e\u0938\u0928": 2805,
  "\u2581assigned": 2806,
  "\u2581education": 2807,
  "\u2581exercise": 2808,
  "\u2581genuine": 2809,
  "\u2581guard": 2810,
  "\u2581\u091f\u093f\u0915\u0935\u0942\u0928": 2811,
  "u": 2812,
  "\u258116,": 2813,
  "\u2581buy": 2814,
  "\u2581saved": 2815,
  "\u2581\u0926\u093e\u0928\u0940\u090f\u0932": 2816,
  "Let": 2817,
  "\u2581\u0906\u0927\u093e\u0930\u093f\u0924": 2818,
  "\u2581\u0924\u094d\u092f\u093e\u091a\u094d\u092f\u093e\u0915\u0921\u0947": 2819,
  "\u2581\u0930\u093e\u0939\u093e\u092f\u0932\u093e": 2820,
  "\u2581Line": 2821,
  "\u2581persecution": 2822,
  "\u2581disciple": 2823,
  "\u2581progress": 2824,
  "\u2581\u0926\u093f\u0938\u0924": 2825,
  "\u2581\u092a\u0941\u0922\u091a\u094d\u092f\u093e": 2826,
  "\u2581\u092f\u0947": 2827,
  "\u2581\u0936\u093f\u0915\u0935\u0923": 2828,
  "\u2581wonder": 2829,
  "\u2581\u0924\u093e\u0938": 2830,
  "\u2581\u092b\u094d\u0930\u0947\u0902\u091a": 2831,
  "\u2581girl": 2832,
  "\u2581member": 2833,
  "\u2581sacred": 2834,
  "\u2581\u0930\u093e\u0939\u0923\u0947": 2835,
  "as": 2836,
  "\u2581Similarly": 2837,
  "\u2581forward": 2838,
  "\u2581\u0915\u0943\u092a\u093e": 2839,
  "\u2581\u0921\u094b\u0933\u0947": 2840,
  "\u2581Good": 2841,
  "\u2581\u092a\u0930\u093f\u0938\u094d\u0925\u093f\u0924\u0940\u0924": 2842,
  "\u2581\u092a\u093e\u0923\u094d\u092f\u093e": 2843,
  "\u2581H": 2844,
  "\u2581Ps": 2845,
  "\u2581\u0924\u0941\u092e\u091a\u094d\u092f\u093e\u0935\u0930": 2846,
  "\u2581expressed": 2847,
  "\u2581simple": 2848,
  "\u2581keeping": 2849,
  "\u2581program": 2850,
  "\u2581\u092e\u093f\u0933\u0924": 2851,
  "\u2581\u0930\u0940\u0924\u0940\u0928\u0947": 2852,
  "\u2581\u0938\u0939": 2853,
  "\u2581faced": 2854,
  "\u2581\u0907\u0938\u094d\u0930\u093e\u090f\u0932\u091a\u093e": 2855,
  "\u2581enjoyed": 2856,
  "\u2581publications": 2857,
  "\u2581unity": 2858,
  "\u2581\u092a\u0933\u0942\u0928": 2859,
  "\u2581\u092e\u093e\u0928\u094d\u092f": 2860,
  "\u2581\u0935\u093e": 2861,
  "\u093e\u0928\u0902": 2862,
  "\u2581\u0906\u0927\u093e\u0930": 2863,
  "\u2581completely": 2864,
  "\u2581court": 2865,
  "\u2581\u0906\u0935\u0921\u0924": 2866,
  "\u2581\u092a\u0930\u092e\u0947\u0936\u094d\u0935\u0930\u093e\u091a\u0947": 2867,
  "\u0940\u0928": 2868,
  "\u2581devotion": 2869,
  "\u2581\u092a\u0902": 2870,
  "\u2581\u0938\u093e\u0930\u094d\u0935\u0915\u093e\u0932": 2871,
  "\u2581household": 2872,
  "\u2581increase": 2873,
  "\u2581wall": 2874,
  "\u2581\u0924\u094d\u092f\u093e\u091a\u0902": 2875,
  "\u258121.": 2876,
  "\u2581bless": 2877,
  "\u2581importance": 2878,
  "\u2581run": 2879,
  "\u2581\u0915\u0930\u093e\u092f\u091a\u093e": 2880,
  "\u2581\u0926\u0941\u0938\u0930\u0947": 2881,
  "\u2581Ephesians": 2882,
  "\u2581\u0906\u0927\u0940\u091a": 2883,
  "\u2581\u0906\u0932\u094d\u092f\u093e": 2884,
  "\u258127": 2885,
  "\u2581dedication": 2886,
  "\u2581strive": 2887,
  "\u2581\u0917\u091f": 2888,
  "\u2581\u0920\u0930\u0935\u0932\u0947": 2889,
  "\u0909\u0924\u094d\u092a\u0924\u094d\u0924\u093f": 2890,
  "\u2581tabernacle": 2891,
  "\u2581\u091c\u093e\u0935\u0947": 2892,
  "\u2581\u092a\u094d\u0930\u0926\u0947\u0936": 2893,
  "\u2581\u092a\u094d\u0930\u0936\u093f\u0915\u094d\u0937\u0923": 2894,
  "\u2581\u0938\u092e\u091c": 2895,
  "\u2581Through": 2896,
  "\u2581approach": 2897,
  "\u2581\u0906": 2898,
  "\u2581\u0920\u0947\u0935": 2899,
  "\u2581\u0924\u0947\u0932": 2900,
  "\u258129": 2901,
  "\u2581beloved": 2902,
  "\u2581\u0916\u0930\u0902\u091a": 2903,
  "What": 2904,
  "\u092f\u0936\u092f\u093e": 2905,
  "\u2581\u0916\u093e\u0938\u0915\u0930\u0942\u0928": 2906,
  "le": 2907,
  "\u093e\u0902\u0936\u0940": 2908,
  "\u2581examine": 2909,
  "\u2581leaders": 2910,
  "\u2581\u0928\u093e\u0935\u093e\u0928\u0947": 2911,
  "\u2581\u0930\u093e\u0939\u0923\u093e\u0930": 2912,
  "and": 2913,
  "\u2581boy": 2914,
  "\u2581entered": 2915,
  "\u2581\u092c\u0928\u0932\u0947": 2916,
  "\u2581\u092e\u0943\u0924": 2917,
  "\u2581\u0930\u094b\u0917": 2918,
  "\u2581\u0932\u093e\u0917\u0924\u094b": 2919,
  "\u2581\u0938\u092e\u091c\u0932\u0947": 2920,
  "\u2581Her": 2921,
  "\u2581Messiah": 2922,
  "\u2581\u0938\u094d\u0925\u093e\u0928": 2923,
  "\u2581\u0939\u093e\u0924\u0942\u0928": 2924,
  "\u2581reign": 2925,
  "\u2581\u092a\u094d\u0930\u0915\u093e\u0930\u091a\u0947": 2926,
  "\u2581\u092e\u093f\u0933\u0924\u094b": 2927,
  "\u2581\u0939\u094b\u0923\u093e\u0931\u094d": 2928,
  "\u258113,": 2929,
  "\u2581conditions": 2930,
  "\u2581loyalty": 2931,
  "\u2581\u0915\u0930\u093f\u0924\u094b": 2932,
  "\u2581\u0918\u0947\u0924\u093e\u0924": 2933,
  "\u2581\u092a\u0939\u093f\u0932\u093e": 2934,
  "\u258131": 2935,
  "\u2581personally": 2936,
  "\u2581\u092e\u0939\u0924\u094d\u0924\u094d\u0935": 2937,
  "\u2581\u092e\u093e\u0930\u094d\u0915": 2938,
  "\u0924\u093e\u0924": 2939,
  "\u2581declared": 2940,
  "\u2581miles": 2941,
  "\u2581village": 2942,
  "\u2581\u0926\u093e\u0930": 2943,
  "\u2581\u092a\u094d\u0930\u0935\u0943\u0924\u094d\u0924": 2944,
  "\u2581\u092a\u094d\u0930\u0935\u0947\u0936": 2945,
  "\u2581\u092d\u0935\u093f\u0937\u094d\u092f\u0935\u093e\u0923\u0940": 2946,
  "\u0938\u0930\u094d\u0935": 2947,
  "\u093e\u0902\u0938\u093e\u0920\u0940": 2948,
  "\u2581lord": 2949,
  "\u2581\u092a\u094d\u0930\u0925\u092e": 2950,
  "\u2581\u0932\u094b\u0915\u093e\u0902\u092e\u0927\u094d\u092f\u0947": 2951,
  "\u2581begin": 2952,
  "\u2581related": 2953,
  "\u2581\u092a\u094d\u0930\u0915\u093e\u0936\u093f\u0924": 2954,
  "\u2581\u0938\u0939\u091c": 2955,
  "\u2581\u0938\u094d\u0925\u093f\u0924\u0940": 2956,
  "\u2581Perhaps": 2957,
  "\u2581arrangement": 2958,
  "\u2581challenges": 2959,
  "\u2581success": 2960,
  "\u2581\u0915\u094d\u0937\u0947\u0924\u094d\u0930\u093e\u0924": 2961,
  "\u2581\u091c\u0928": 2962,
  "\u2581\u092a\u0921\u0942": 2963,
  "\u2581\u0936\u0915\u094d\u092f\u0924\u093e": 2964,
  "\u2581\u0938\u0941\u0935\u093e\u0930\u094d\u0924\u0947": 2965,
  "\u2581aware": 2966,
  "\u2581greatly": 2967,
  "\u2581recognize": 2968,
  "\u2581won": 2969,
  "\u2581\u0915\u093e\u0932": 2970,
  "\u2581\u0926\u093e\u0916\u0935\u0932\u0947": 2971,
  "\u2581\u0938\u0923": 2972,
  "\u093e\u0902\u0915\u0921\u0947": 2973,
  "\u2581York": 2974,
  "\u2581address": 2975,
  "\u2581traveling": 2976,
  "\u2581\u092a\u0948\u0938\u093e": 2977,
  "\u0932\u0947\u0932\u094d\u092f\u093e": 2978,
  "\u2581accounts": 2979,
  "\u2581\u092a\u093e\u0939\u0924\u094b": 2980,
  "\u258133": 2981,
  "\u2581\u0915\u0936\u093e\u092e\u0941\u0933\u0947": 2982,
  "\u2581Isaac": 2983,
  "\u2581big": 2984,
  "\u2581minister": 2985,
  "\u2581\u091c\u0917\u093e\u091a\u094d\u092f\u093e": 2986,
  "\u2581\u092a\u093e\u092a\u0940": 2987,
  "\u2581\u092c\u0939\u0940\u0923": 2988,
  "\u2581\u0935\u093e\u091f\u0932\u0902": 2989,
  "\u2581\u0936\u092a\u0925": 2990,
  "\u2581\u0938\u0948\u0924\u093e\u0928\u093e\u091a\u094d\u092f\u093e": 2991,
  "\u2581goes": 2992,
  "\u0928\u0940\u0924\u093f": 2993,
  "\u2581Only": 2994,
  "\u2581\u092b\u093e\u0907\u0932": 2995,
  "\u2581\u092e\u093e\u0930\u094d\u0917\u093e\u0902\u0928\u0940": 2996,
  "\u0924\u094d\u092f\u093e": 2997,
  "\u2581obedience": 2998,
  "\u2581type": 2999,
  "\u2581\u092e\u093e\u0930\u094d\u0917\u093e\u0928\u0947": 3000,
  "\u0938\u093e\u0930\u0916\u093e": 3001,
  "\u2581compassion": 3002,
  "\u2581involves": 3003,
  "\u2581\u091a\u0928\u093e\u0902\u0928\u0940": 3004,
  "espite": 3005,
  "\u258121:": 3006,
  "\u2581despite": 3007,
  "\u2581\u092d\u0947\u091f\u0940": 3008,
  "at": 3009,
  "P": 3010,
  "\u258132": 3011,
  "\u2581eventually": 3012,
  "\u2581wickedness": 3013,
  "\u2581\u0906\u0915\u093e\u0936": 3014,
  "\u2581\u092e\u0924\u094d\u0924": 3015,
  "\u2581\u0906\u0924\u094d\u092e\u094d\u092f\u093e\u0928\u0947": 3016,
  "\u2581\u091a\u093e\u0932\u0932\u0947": 3017,
  "\u2581\u092e\u0947": 3018,
  "\u0923\u093e\u0931\u094d\u092f\u093e": 3019,
  "\u2581worshippers": 3020,
  "\u2581\u0906\u092e\u094d\u0939\u093e\u0902\u0932\u093e": 3021,
  "\u2581\u0926\u0917\u0921": 3022,
  "\u2581\u092a\u094d\u0930\u093e\u092e\u093e\u0923\u093f\u0915": 3023,
  "\u2581Germany": 3024,
  "\u2581aside": 3025,
  "\u2581forgive": 3026,
  "\u2581magazine": 3027,
  "\u2581\u0920\u093e\u090a\u0915": 3028,
  "\u2581river": 3029,
  "\u2581student": 3030,
  "\u2581\u091c\u0917\u093e\u091a\u093e": 3031,
  "\u2581\u0927\u093e\u0928\u094d\u092f": 3032,
  "2": 3033,
  "\u2581areas": 3034,
  "\u2581\u0930\u093e\u0939\u093e\u0924": 3035,
  "\u2581\u0936\u093e\u0933\u0947\u0924": 3036,
  "\u093e\u0902\u092c\u0926\u094d\u0926\u0932": 3037,
  "\u2581centuries": 3038,
  "\u2581final": 3039,
  "\u2581sit": 3040,
  "\u2581white": 3041,
  "\u2581Jordan": 3042,
  "\u2581feeling": 3043,
  "\u2581urged": 3044,
  "\u2581\u0909\u0926\u094d\u092f\u093e": 3045,
  "\u2581\u0924\u0947\u0925\u0940\u0932": 3046,
  "\u2581\u092e\u093e\u0924": 3047,
  "\u0930\u093e": 3048,
  "\u0938\u093e\u0930\u0916\u0940": 3049,
  "\u2581eight": 3050,
  "\u2581explain": 3051,
  "\u2581remained": 3052,
  "\u2581sake": 3053,
  "\u2581sort": 3054,
  "\u2581\u0924\u094d\u092f\u093e\u091a\u092a\u094d\u0930\u092e\u093e\u0923\u0947": 3055,
  "\u2581\u092c\u0938\u0932\u093e": 3056,
  "\u2581\u092c\u0941\u0926\u094d\u0927\u0940": 3057,
  "\u2581affection": 3058,
  "\u2581parent": 3059,
  "\u2581protection": 3060,
  "\u2581sought": 3061,
  "\u2581\u0915\u0930\u093f\u0902\u0925": 3062,
  "\u2581\u091c\u0917\u092d\u0930\u093e\u0924": 3063,
  "\u2581\u091c\u0930\u0940": 3064,
  "\u2581\u0932\u093e\u0902\u092c": 3065,
  "\u2581\u0935\u0947\u0926\u0940": 3066,
  "\u2581\u0938\u0915\u093e\u0933\u0940": 3067,
  "\u2581Mount": 3068,
  "\u2581\u0915\u0947\u0932\u0947\u0932\u093e": 3069,
  "\u2581\u0932\u094b\u0915\u093e\u0902\u0936\u0940": 3070,
  "\u2581\u0939\u0943\u0926\u092f": 3071,
  "\u0926\u0947\u0935": 3072,
  "\u2581High": 3073,
  "\u2581cried": 3074,
  "\u2581train": 3075,
  "\u2581\u0926\u094b\u0937": 3076,
  "\u2581\u0927\u0928\u094d\u092f": 3077,
  "\u2581\u092a\u094d\u0930\u0947\u0937\u093f\u0924\u093e\u0902\u091a\u0940": 3078,
  "\u2581lies": 3079,
  "\u2581percent": 3080,
  "\u2581studies": 3081,
  "\u2581usually": 3082,
  "\u2581\u091c\u0930\u093e": 3083,
  "\u2581\u0930\u093e\u0939\u093e\u0935\u0947": 3084,
  "\u2581\u0936\u0915\u0932\u0947": 3085,
  "\u2581Clearly": 3086,
  "\u2581War": 3087,
  "\u2581required": 3088,
  "\u2581spend": 3089,
  "\u2581stars": 3090,
  "\u2581wind": 3091,
  "\u092a\u0941\u0922\u0947": 3092,
  "\u2581\u0938\u0939\u092d\u093e\u0917": 3093,
  "\u2581contrast": 3094,
  "\u2581iniquity": 3095,
  "\u2581opening": 3096,
  "\u2581\u0909\u0926\u094d": 3097,
  "\u2581\u090f": 3098,
  "\u2581\u092c\u094b\u0932\u0924\u094b": 3099,
  "\u2581pleasure": 3100,
  "\u2581teachers": 3101,
  "\u2581gifts": 3102,
  "\u2581picture": 3103,
  "\u2581\u0936\u0915\u0932\u093e": 3104,
  "\u2581\u0938\u092d\u093e\u0902\u0928\u093e": 3105,
  "\u2581\u0939\u093f\u091c\u094d\u0915\u0940\u092f\u093e": 3106,
  "\u091c\u0947": 3107,
  "\u092a\u0930\u092e\u0947\u0936\u094d": 3108,
  "\u2581disease": 3109,
  "\u2581failed": 3110,
  "\u2581\u0906\u091c\u093e\u0930\u0940": 3111,
  "\u2581\u0906\u092d\u093e\u0930": 3112,
  "\u2581\u0924\u094d\u092f\u093e\u0938\u093e\u0920\u0940": 3113,
  "\u2581\u092c\u0940": 3114,
  "This": 3115,
  "\u092a\u0923": 3116,
  "\u2581Hezekiah": 3117,
  "\u2581company": 3118,
  "\u2581\u0905\u0938\u0924": 3119,
  "\u2581\u0938\u092d\u093e": 3120,
  "\u0924\u0940": 3121,
  "\u2581overseer": 3122,
  "\u2581truths": 3123,
  "\u2581\u0915\u094c\u091f\u0941\u0902\u092c\u093f\u0915": 3124,
  "\u2581\u0918\u094b\u0937\u0923\u093e": 3125,
  "\u2581\u0936\u094b\u0915": 3126,
  "\u2581\u0938\u0930\u094d\u0935\u091a": 3127,
  "\u258123.": 3128,
  "\u2581pursue": 3129,
  "\u2581sovereignty": 3130,
  "\u2581\u0926\u0947\u0935\u093e\u0915\u0921\u0942\u0928": 3131,
  "\u0924\u0930\u0940": 3132,
  "\u2581\"\"": 3133,
  "\u2581Awake": 3134,
  "\u2581asking": 3135,
  "\u2581carefully": 3136,
  "\u2581km": 3137,
  "\u2581loves": 3138,
  "\u2581patience": 3139,
  "\u2581term": 3140,
  "\u2581\u092e\u0939\u0924\u094d\u0924\u094d\u0935\u093e\u091a\u0940": 3141,
  "\u2581\u0938\u0941\u092e\u093e\u0930": 3142,
  "\u0938\u093e": 3143,
  "\u2581closer": 3144,
  "\u2581demonstrate": 3145,
  "\u2581lose": 3146,
  "\u2581main": 3147,
  "\u2581measure": 3148,
  "\u2581nature": 3149,
  "\u2581preached": 3150,
  "\u2581workers": 3151,
  "\u2581\u092e\u0924\u0947": 3152,
  "\u2581\u0930\u093e\u0939\u0923\u094d\u092f\u093e\u0938": 3153,
  "\u2581struck": 3154,
  "\u2581\u091c\u092e\u093f\u0928\u0940\u0935\u0930": 3155,
  "\u2581\u091c\u093e\u0917\u0940": 3156,
  "\u2581\u0926\u0947\u0923\u094d\u092f\u093e\u0938": 3157,
  "\u2581\u092e\u0902\u0926\u093f\u0930\u093e\u091a\u094d\u092f\u093e": 3158,
  "\u2581\u092e\u094b\u0936\u0947\u0932\u093e": 3159,
  "\u2581\u0936\u093f\u0915\u093e\u092f\u0932\u093e": 3160,
  "it": 3161,
  "ri": 3162,
  "\u0928\u0941\u0938\u093e\u0930": 3163,
  "\u2581articles": 3164,
  "\u2581\u0909\u0924\u094d\u092a\u0924\u094d\u0924\u093f": 3165,
  "\u2581\u0915\u0947\u0938": 3166,
  "\u2581\u0927\u0921\u093e": 3167,
  "\u2581\u092e\u093e\u0928\u0935\u091c\u093e\u0924\u0940": 3168,
  "\u2581\u0935\u093e\u091f\u0924\u094b": 3169,
  "\u2581\u0935\u094d\u0939\u093e": 3170,
  "\u2581\u0936\u093e\u0930\u0940\u0930\u093f\u0915": 3171,
  "\u093e\u0902\u092e\u0941\u0933\u0947": 3172,
  "\u2581houses": 3173,
  "\u2581opposition": 3174,
  "\u2581rise": 3175,
  "\u2581search": 3176,
  "\u2581\u0924\u093f\u0925\u0902": 3177,
  "\u2581\u0935\u093f\u091a\u093e\u0930\u093e\u0924": 3178,
  "\u2581About": 3179,
  "\u2581meat": 3180,
  "\u2581visited": 3181,
  "\u2581walked": 3182,
  "\u2581\u0909\u091a\u093f\u0924": 3183,
  "\u2581Come": 3184,
  "\u2581assembly": 3185,
  "\u2581committed": 3186,
  "\u2581\u0905\u0928\u0941\u0935\u093e\u0926": 3187,
  "\u2581\u0906\u0924\u094d\u092e\u094d\u092f\u093e\u091a\u094d\u092f\u093e": 3188,
  "\u2581\u092a\u093e\u0939\u093f\u0932\u0902": 3189,
  "\u2581\u092d\u0935\u093f\u0937\u094d\u092f\u093e\u0924": 3190,
  "\u0902\u0935\u0930": 3191,
  "\u0936\u093f\u0935\u093e\u092f": 3192,
  "\u2581harvest": 3193,
  "\u2581overcome": 3194,
  "\u2581political": 3195,
  "\u2581\u0910\u0915\u093e": 3196,
  "\u2581\u0917\u093e\u0921\u0940": 3197,
  "\u2581\u0926\u093f\u0932\u0947\u0932\u0940": 3198,
  "\u2581\u0928\u094b\u0939\u093e": 3199,
  "\u2581\u0935\u093f\u0915\u0938": 3200,
  "\u2581\u0938\u0927\u094d\u092f\u093e": 3201,
  "\u2581\u0938\u0930\u094d\u0935\u0936\u0915\u094d\u0924\u093f\u092e\u093e\u0928": 3202,
  "\u2581\u0938\u0947\u0935\u0915\u093e\u0902\u0928\u093e": 3203,
  "\u2581Box": 3204,
  "\u2581effective": 3205,
  "\u2581rain": 3206,
  "\u2581sex": 3207,
  "\u2581town": 3208,
  "\u2581\u0905\u0938\u094d\u0924\u093f\u0924\u094d\u0935\u093e\u0924": 3209,
  "\u2581\u0928\u0915\u093e\u0930": 3210,
  "\u2581\u092a\u093e\u0939\u093e\u092f\u0932\u093e": 3211,
  "T": 3212,
  "\u258117,": 3213,
  "\u2581obedient": 3214,
  "\u2581putt": 3215,
  "\u2581ruler": 3216,
  "\u2581treat": 3217,
  "\u0902\u0924": 3218,
  "\u2581School": 3219,
  "\u2581experiences": 3220,
  "\u2581suffered": 3221,
  "\u2581\u0926\u0941\u0938\u0930\u0940": 3222,
  "In": 3223,
  "\u2581association": 3224,
  "\u2581commandment": 3225,
  "\u2581\u091d\u094b\u092a": 3226,
  "\u093e\u0915\u0930\u0924\u093e": 3227,
  "\u2581More": 3228,
  "\u2581prevent": 3229,
  "\u2581pride": 3230,
  "\u2581\u092e\u0941\u0932\u0902": 3231,
  "\u2581\u0938\u094d\u0935\u093e\u0917\u0924": 3232,
  "ting": 3233,
  "\u2581\u0906\u092a\u0932\u094d\u092f\u093e\u0915\u0930\u0924\u093e": 3234,
  "ion": 3235,
  "\u0931\u094d": 3236,
  "\u093e\u0939\u0942\u0928": 3237,
  "\u2581idea": 3238,
  "\u2581observed": 3239,
  "\u2581\u0928\u0938\u0932\u0947\u0932\u094d\u092f\u093e": 3240,
  "\u2581\u092a\u0939\u093f\u0932\u0947": 3241,
  "\u2581appear": 3242,
  "\u2581security": 3243,
  "\u2581\u092a\u093e\u0938\u0942\u0928": 3244,
  "\u2581\u0930\u0915\u094d\u0924": 3245,
  "\u2581Soon": 3246,
  "\u2581Un": 3247,
  "\u2581instead": 3248,
  "\u2581\u0906\u0908\u0935\u0921\u0940\u0932": 3249,
  "\u2581\u0917\u093e\u0935\u093e\u0924": 3250,
  "\u2581\u0938\u0942\u091a\u0928\u093e": 3251,
  "\u2581\u0939\u094b\u0923\u094d\u092f\u093e\u091a\u0940": 3252,
  "\u0909\u0924\u094d\u092a": 3253,
  "\u2581Make": 3254,
  "\u2581\u092a\u094d\u0930\u0924\u093f\u0915\u094d\u0930\u093f\u092f\u093e": 3255,
  "\u2581\u0932\u093e\u0917\u0932\u094b": 3256,
  "\u2581foreign": 3257,
  "\u2581included": 3258,
  "\u2581zeal": 3259,
  "\u2581\u092c\u093e\u0924\u092e\u0940": 3260,
  "\u2581\u092e": 3261,
  "\u2581\u092e\u094d\u0939\u0923\u0924": 3262,
  "\u2581\u092f\u093e\u0928\u0902\u0924\u0930": 3263,
  "\u2581\u0938\u0917\u0933\u094d\u092f\u093e": 3264,
  "\u2581unclean": 3265,
  "\u2581valuable": 3266,
  "\u2581\u091a\u0941\u0915\u093e": 3267,
  "\u2581\u0936\u0924\u0915\u093e\u0924\u0940\u0932": 3268,
  "\u2581\u0938\u0942\u0930\u094d\u092f": 3269,
  "\u0926\u093e\u092f\u0915": 3270,
  "\u092a\u094d\u0930\u0947": 3271,
  "\u0935\u093f\u0930\u0941\u0926\u094d\u0927": 3272,
  "\u2581blind": 3273,
  "\u2581calls": 3274,
  "\u2581discreet": 3275,
  "\u2581\u0915\u094d\u0937\u0947\u0924\u094d\u0930": 3276,
  "\u2581\u0938\u094d\u0935\u093e\u0924\u0902\u0924\u094d\u0930\u094d\u092f": 3277,
  "\u092e\u093e": 3278,
  "\u2581Rome": 3279,
  "\u2581\u0905\u0932\u0940\u0936\u093e": 3280,
  "\u2581\u0905\u0938\u0924\u0902": 3281,
  "\u2581\u0918\u0947\u0923\u094d\u092f\u093e\u091a\u0940": 3282,
  "\u2581\u0932\u093e\u092d": 3283,
  "\u2581\u0939\u0940\u091a": 3284,
  "\u2581mental": 3285,
  "\u2581pioneers": 3286,
  "\u2581\u0924\u0941\u092e\u094d\u0939\u093e": 3287,
  "\u2581\u092c\u093e\u092f\u0915\u094b": 3288,
  "\u2581acceptable": 3289,
  "\u2581appeared": 3290,
  "\u2581arose": 3291,
  "\u2581meant": 3292,
  "\u2581\u0920\u0947\u0935\u0932\u0940": 3293,
  "\u2581\u0927\u0930\u0942\u0928": 3294,
  "\u2581\u092c\u0941\u0926\u094d\u0927\u093f\u092e\u093e\u0928": 3295,
  "ur": 3296,
  "\u0930\u0940": 3297,
  "\u2581\u091a\u093e\u0902\u0926\u0940": 3298,
  "\u2581\u091a\u093f\u0928\u094d\u0939": 3299,
  "\u2581\u091d\u093e\u0932\u094d\u092f\u093e": 3300,
  "\u2581\u092b\u0942\u091f": 3301,
  "\u2581\u092e\u093f\u0936\u0928\u0930\u0940": 3302,
  "\u2581\u0932\u0948\u0902\u0917\u093f\u0915": 3303,
  "\u2581Cor": 3304,
  "\u2581camp": 3305,
  "\u2581\u0905\u092d\u093f\u0935\u091a\u0928": 3306,
  "Y": 3307,
  "\u0938\u094b\u092c\u0924": 3308,
  "\u2581ears": 3309,
  "\u2581\u0930\u093e\u0939\u0923\u093e\u0931\u094d": 3310,
  "\u2581general": 3311,
  "\u2581specific": 3312,
  "\u2581\u0905\u092a\u0930\u093f\u092a\u0942\u0930\u094d\u0923": 3313,
  "\u2581\u092a\u0947\u0915\u094d\u0937\u093e": 3314,
  "\u2581\u092c\u0928\u0932\u093e": 3315,
  "\u258123": 3316,
  "\u258150": 3317,
  "\u2581talking": 3318,
  "\u2581\u0924\u0947\u0925\u0942\u0928": 3319,
  "\u2581\u0932\u093e\u0917\u0923\u093e\u0930": 3320,
  "\u2581\u0938\u0941\u0930\u0941\u0935\u093e\u0924\u0940\u0932\u093e": 3321,
  "\u2581\u0906\u0926\u0930\u094d\u0936": 3322,
  "\u2581\u0906\u092e\u0902\u0924\u094d\u0930\u0923": 3323,
  "\u2581\u092e\u0941\u0932\u0940": 3324,
  "\u2581\u0938\u0941\u091c\u094d\u091e": 3325,
  "\u2581eating": 3326,
  "\u2581m": 3327,
  "\u2581manifest": 3328,
  "\u2581reports": 3329,
  "\u2581requires": 3330,
  "\u2581\u0906\u0935\u0921\u0924\u0947": 3331,
  "\u2581\u0921\u094b\u0902\u0917\u0930\u093e\u0935\u0930": 3332,
  "\u2581\u0926\u093f\u0935\u0938\u093e\u0902\u0924": 3333,
  "\u2581\u092a\u094c\u0932\u093e\u0932\u093e": 3334,
  "\u2581\u0930\u093e\u0939\u0924\u0940\u0932": 3335,
  "\u2581baby": 3336,
  "\u2581listening": 3337,
  "\u2581original": 3338,
  "\u2581peoples": 3339,
  "\u2581\u0915\u0943\u092a\u092f\u093e": 3340,
  "\u2581\u0916\u0947\u0933": 3341,
  "\u2581\u092a\u094d\u0930\u0947\u0930\u0923\u093e": 3342,
  "\u258118,": 3343,
  "\u2581Was": 3344,
  "\u2581beliefs": 3345,
  "\u2581reveal": 3346,
  "\u2581understood": 3347,
  "\u2581\u0906\u0915\u093e\u0930": 3348,
  "\u2581\u092a\u094d\u0930\u0924\u093f\u092b\u0933": 3349,
  "\u2581\u092d\u093e\u0917\u093e\u0924": 3350,
  "N": 3351,
  "\u0923\u094d\u092f\u093e\u0938\u093e\u0920\u0940": 3352,
  "\u258137": 3353,
  "\u2581late": 3354,
  "\u2581stones": 3355,
  "\u2581\u0918\u093e\u0932\u0942\u0928": 3356,
  "\u2581\u0924\u0940\u0928\u0947": 3357,
  "\u2581\u092f\u0947\u0936\u0942\u091a\u093e": 3358,
  "\u2581\u0935\u091a\u0928\u0947": 3359,
  "\u2581\u0936\u0924\u0915\u093e\u0924": 3360,
  "\u258119,": 3361,
  "\u2581situations": 3362,
  "\u2581\u0907\u0924\u0915\u094d\u092f\u093e": 3363,
  "\u2581\u092d\u093e\u0915\u0940\u0924": 3364,
  "\u2581\u0936\u0932\u092e\u094b\u0928\u093e\u0928\u0947": 3365,
  "\u2581\u0938\u092e\u091c\u0942": 3366,
  "\u2581Africa": 3367,
  "\u2581Should": 3368,
  "\u2581discuss": 3369,
  "\u2581gather": 3370,
  "\u2581principle": 3371,
  "\u2581step": 3372,
  "\u2581\u0935\u0943\u0926\u094d\u0927": 3373,
  "\u2581de": 3374,
  "\u2581points": 3375,
  "\u2581publishers": 3376,
  "\u2581\u091c\u0940\u0935\u0928\u093e\u091a\u093e": 3377,
  "\u2581\u0938\u0930\u0933": 3378,
  "\u2581L": 3379,
  "\u2581realized": 3380,
  "\u2581\u0915\u093e\u0939\u0940\u0902\u0928\u093e": 3381,
  "\u2581music": 3382,
  "\u2581\u0924\u094d\u092f\u093e\u0935\u0947\u0933\u0940": 3383,
  "\u2581\u0928\u093e\u0935\u0947": 3384,
  "\u0906": 3385,
  "\u2581--": 3386,
  "\u2581Japan": 3387,
  "\u2581Memorial": 3388,
  "\u2581noted": 3389,
  "\u2581re": 3390,
  "\u2581seemed": 3391,
  "\u2581\u0920\u0930\u0942": 3392,
  "\u2581sharing": 3393,
  "\u2581trouble": 3394,
  "\u2581\u0905\u0939\u0930\u094b\u0928": 3395,
  "\u2581\u0917\u0930\u091c\u093e": 3396,
  "\u2581\u092a\u094d\u0930\u0938\u0902\u0917": 3397,
  "\u2581\u0936\u093e\u0916\u093e": 3398,
  "\u093e\u0902\u0935\u093f\u0937\u092f\u0940": 3399,
  "\u258122.": 3400,
  "\u2581youths": 3401,
  "\u2581\u0938\u094d\u0924\u094b": 3402,
  "\u2581contact": 3403,
  "\u2581resurrected": 3404,
  "\u2581\u092c\u093e\u092f\u092c\u0932\u092e\u0927\u0942\u0928": 3405,
  "\u2581\u0935\u0930\u094d\u0937\u093e\u0902\u092a\u093e\u0938\u0942\u0928": 3406,
  "\u2581\u0935\u093e\u0926": 3407,
  "\u2581Zion": 3408,
  "\u2581concerned": 3409,
  "\u2581secret": 3410,
  "\u2581sinned": 3411,
  "\u2581warned": 3412,
  "\u2581\u091c\u0921": 3413,
  "\u2581\u0938\u093e\u0915\u094d\u0937\u0940\u0926\u093e\u0930\u093e\u0902\u0928\u093e": 3414,
  "\u2581\u091c\u093e\u092f\u0932\u093e": 3415,
  "\u2581\u0930\u093e\u091c\u094d\u092f\u093e\u091a\u094d\u092f\u093e": 3416,
  "\u0902\u0917": 3417,
  "\u2581angry": 3418,
  "\u2581confident": 3419,
  "\u2581consequences": 3420,
  "\u2581endurance": 3421,
  "\u2581\u0924\u0941\u0930\u0941\u0902\u0917\u093e\u0924": 3422,
  "\u2581\u0938\u093e\u092e\u0940\u0932": 3423,
  "\u093e\u0902\u092a\u093e\u0938\u0942\u0928": 3424,
  "\u2581Ask": 3425,
  "\u2581Jonathan": 3426,
  "\u2581distress": 3427,
  "\u2581p": 3428,
  "\u2581raise": 3429,
  "\u2581writing": 3430,
  "\u2581Could": 3431,
  "\u2581friendship": 3432,
  "\u2581grew": 3433,
  "\u2581troubled": 3434,
  "\u2581\u092a\u0930\u094d\u0935\u0924": 3435,
  "\u2581cope": 3436,
  "\u2581\u0915\u094b\u0923\u093e\u0932\u093e\u0939\u0940": 3437,
  "\u2581\u092a\u094d\u0930\u0924\u093f\u0938\u093e\u0926": 3438,
  "\u2581likewise": 3439,
  "\u2581note": 3440,
  "\u2581request": 3441,
  "\u2581\u0906\u091c\u091a\u094d\u092f\u093e": 3442,
  "\u2581\u0915\u093e\u0930\u094d\u092f\u0915\u094d\u0930\u092e": 3443,
  "\u2581\u091a\u0930\u094d\u092f": 3444,
  "\u2581\u0927\u094d\u092f\u0947\u092f": 3445,
  "\u2581\u092a\u094d\u0930\u0936\u094d\u0928": 3446,
  "te": 3447,
  "\u0915\u0930": 3448,
  "\u2581circuit": 3449,
  "\u2581conclusion": 3450,
  "\u2581front": 3451,
  "\u2581north": 3452,
  "\u2581\u0915\u093e\u0939\u0940\u091c\u0923": 3453,
  "\u2581\u0926\u0947\u0924\u093e": 3454,
  "\u2581\u0938\u0902\u0915\u091f\u0947": 3455,
  "For": 3456,
  "el": 3457,
  "\u091c\u094b": 3458,
  "\u2581Body": 3459,
  "\u2581although": 3460,
  "\u2581generation": 3461,
  "\u2581relatives": 3462,
  "\u2581\u091c\u093e\u0923\u093e\u0931\u094d": 3463,
  "\u2581\u091d\u093e\u0932\u0947\u0932\u0947": 3464,
  "\u2581\u0924\u0941\u092e\u091a\u094d\u092f\u093e\u0915\u0921\u0947": 3465,
  "\u2581\u0935\u093e\u091a\u0942\u0928": 3466,
  "\u2581\u0938\u092e\u0930\u094d\u092a\u093f\u0924": 3467,
  "\u093e\u0928\u0941\u0938\u093e\u0930": 3468,
  "\u2581cover": 3469,
  "\u2581inside": 3470,
  "\u2581\u091a\u093e\u0924\u094d\u0924\u093e\u092a": 3471,
  "\u2581\u0932\u093e\u0917\u0924\u093e\u0924": 3472,
  "\u2581\u090f\u0932\u0940\u092f\u093e": 3473,
  "\u2581\u0938\u094d\u0935\u092a\u094d\u0928": 3474,
  "\u2581\u0939\u0935\u093e": 3475,
  "ro": 3476,
  "\u2581deeds": 3477,
  "\u2581goodness": 3478,
  "\u2581hate": 3479,
  "\u2581\u0905\u0938\u0942\u0928\u0939\u0940": 3480,
  "\u2581\u092e\u0926\u0924\u0940\u0938\u093e\u0920\u0940": 3481,
  "\u2581\u0936\u093f\u0915\u0935\u0932\u0947": 3482,
  "\u2581\u0938\u094b\u0928\u094d\u092f\u093e": 3483,
  "\u2581bringing": 3484,
  "\u2581danger": 3485,
  "\u2581\u092a\u093e\u0924\u094d\u0930": 3486,
  "\u2581\u092a\u094d\u0930\u0947\u0930\u093f\u0924": 3487,
  "\u2581\u092f\u0939\u094b\u0935\u093e\u0928\u0902": 3488,
  "\u2581negative": 3489,
  "\u2581produce": 3490,
  "\u2581refused": 3491,
  "\u2581responsible": 3492,
  "\u2581\u0906\u0927\u0941\u0928\u093f\u0915": 3493,
  "\u2581\u092e\u0902\u0921\u0933\u0940\u091a\u094d\u092f\u093e": 3494,
  "\u2581\u092e\u093e\u091d\u094d\u092f\u093e\u0938\u093e\u0920\u0940": 3495,
  "\u2581\u0938\u0941\u0916\u0940": 3496,
  "\u2581\u0938\u094d\u0924\u094d\u0930\u093f\u092f\u093e": 3497,
  "\u0906\u092a\u0932\u094d\u092f\u093e": 3498,
  "\u2581bed": 3499,
  "\u2581contribute": 3500,
  "\u2581garden": 3501,
  "\u2581response": 3502,
  "\u2581yes": 3503,
  "\u2581\u0917\u093e\u0935": 3504,
  "\u2581\u091c\u092c\u093e\u092c\u0926\u093e\u0931\u094d": 3505,
  "\u2581\u091d\u093e\u0932\u0947\u0932\u093e": 3506,
  "H": 3507,
  "\u2581story": 3508,
  "\u2581\u0906\u0932\u0947\u0932\u0947": 3509,
  "\u2581\u0928\u0948\u0924\u093f\u0915": 3510,
  "\u0938\u092e\u094b\u0930": 3511,
  "\u2581Over": 3512,
  "\u2581\u0938\u093e\u0915\u094d\u0937\u0940\u0926\u093e\u0930\u093e\u0902\u091a\u094d\u092f\u093e": 3513,
  "\u2581\u0938\u093e\u0927\u094d\u092f": 3514,
  "ce": 3515,
  "\u2581%1": 3516,
  "\u2581chose": 3517,
  "\u2581sincere": 3518,
  "\u2581speaks": 3519,
  "\u2581\u0924\u0938\u0902": 3520,
  "\u2581\u092a\u0947\u0924\u094d\u0930\u093e\u0928\u0947": 3521,
  "\u2581\u0938\u0902\u092c\u0902\u0927\u093f\u0924": 3522,
  "ation": 3523,
  "\u0936\u0940\u0932": 3524,
  "\u2581Pharisees": 3525,
  "\u2581accomplish": 3526,
  "\u2581\u0905\u0938\u093e\u0932": 3527,
  "\u2581\u0926\u0947\u0923\u093e\u0931\u094d": 3528,
  "\u2581\u092e\u0939\u0924\u094d\u0924\u094d\u0935\u093e\u091a\u093e": 3529,
  "se": 3530,
  "\u2581fast": 3531,
  "\u2581song": 3532,
  "\u2581territory": 3533,
  "\u2581\u092a\u094d\u0930\u0938\u0902\u0917\u0940": 3534,
  "\u2581\u092c\u0947\u0925\u0947\u0932": 3535,
  "\u2581\u0935\u0943\u0924\u094d\u0924\u0940": 3536,
  "\u2581GOD": 3537,
  "\u2581elderly": 3538,
  "\u2581twelve": 3539,
  "\u2581\u0924\u094d\u092f\u093e\u0924\u0942\u0928": 3540,
  "all": 3541,
  "\u2581Well": 3542,
  "\u2581fruitage": 3543,
  "\u2581\u0915\u0947\u0932\u094d\u092f\u093e\u0935\u0930": 3544,
  "\u2581\u092d\u093e\u0915\u0930\u0940": 3545,
  "\u2581Govern": 3546,
  "\u2581grateful": 3547,
  "\u2581includes": 3548,
  "\u2581\u0906\u0930\u094b\u092a": 3549,
  "\u2581\u0908\u0936\u094d": 3550,
  "\u2581\u0909\u092a\u093e\u0938\u0928\u0947": 3551,
  "\u2581\u0915\u093f\u0924\u0940\u0924\u0930\u0940": 3552,
  "\u2581\u0924\u094d\u092f\u093e\u0924\u0940\u0932": 3553,
  "\u2581\u092e\u093e\u0902\u0938": 3554,
  "\u258124.": 3555,
  "\u2581OF": 3556,
  "\u2581Ruth": 3557,
  "\u2581hearing": 3558,
  "\u2581\u092c\u093e\u092a": 3559,
  "\u2581South": 3560,
  "\u2581continues": 3561,
  "\u2581fled": 3562,
  "\u2581lips": 3563,
  "\u2581presented": 3564,
  "\u2581\u0905\u0936\u0941\u0926\u094d\u0927": 3565,
  "\u2581\u092c\u093e\u0930\u093e": 3566,
  "\u2581\u0930\u093e\u0939\u093f\u0932\u0940": 3567,
  "\u2581\u0935\u094d\u092f\u0935\u0938\u094d\u0925\u093e": 3568,
  "\u2581NW": 3569,
  "\u2581developed": 3570,
  "\u2581uses": 3571,
  "\u2581\u0920\u0947\u0935\u0924\u094b": 3572,
  "\u2581\u092e\u093e\u0923\u0938\u093e\u0902\u0928\u093e": 3573,
  "\u2581\u0930\u0902\u0917": 3574,
  "\u2581attended": 3575,
  "\u2581guide": 3576,
  "\u2581react": 3577,
  "\u2581recent": 3578,
  "\u2581round": 3579,
  "\u2581\u0916\u0942\u092a\u091a": 3580,
  "\u2581\u092e\u0940\u091a": 3581,
  "li": 3582,
  "\u0915\u093e": 3583,
  "\u2581event": 3584,
  "\u2581fulfill": 3585,
  "\u2581imagine": 3586,
  "\u2581\u0910\u0915": 3587,
  "\u2581\u0915": 3588,
  "\u2581\u092c\u091a\u093e\u0935": 3589,
  "\u2581\u092e\u093e\u0923\u0938\u093e\u0928\u0947": 3590,
  "\u2581\u0930\u093e\u0939\u0924\u0947": 3591,
  "\u2581\u0938\u093e\u0939\u093f\u0924\u094d\u092f": 3592,
  "\u2581limited": 3593,
  "\u2581\u0924\u094b\u092a\u0930\u094d\u092f\u0902\u0924": 3594,
  "\u2581\u0926\u0942\u0924": 3595,
  "\u2581\u0926\u094d\u0930\u093e\u0915\u094d\u0937\u093e\u0930\u0938": 3596,
  "\u2581France": 3597,
  "\u2581god": 3598,
  "\u2581hurt": 3599,
  "\u2581praying": 3600,
  "\u2581universe": 3601,
  "\u2581waiting": 3602,
  "\u2581younger": 3603,
  "\u2581\u0915\u0941\u091f\u0941\u0902\u092c\u093e\u0924": 3604,
  "\u2581\u092d\u0947\u091f\u093e\u092f\u0932\u093e": 3605,
  "\u2581\u0932\u093e\u0935\u0932\u0947": 3606,
  "\u2581\u0939\u0915\u094d\u0915": 3607,
  "My": 3608,
  "\u2581Young": 3609,
  "\u2581\u091c\u094d\u092f\u093e\u0928\u0947": 3610,
  "\u2581\u0924\u094d\u092f\u093e\u0935\u0930\u0942\u0928": 3611,
  "\u2581\u0928\u094b\u0915\u0930": 3612,
  "\u2581\u092a\u093e\u090a\u0932": 3613,
  "\u2581\u0938\u0924\u094d\u0924\u093e": 3614,
  "\u093e\u0935\u0947": 3615,
  "\u2581TO": 3616,
  "\u2581existence": 3617,
  "\u2581groups": 3618,
  "\u2581offspring": 3619,
  "\u2581\u0918\u0947": 3620,
  "\u2581\u0926\u0947\u0935\u093e\u0935\u093f\u0937\u092f\u0940": 3621,
  "\u2581\u0926\u0947\u0936\u093e\u0902\u0924": 3622,
  "\u2581Philippians": 3623,
  "\u2581attending": 3624,
  "\u2581creatures": 3625,
  "\u2581rock": 3626,
  "\u2581tears": 3627,
  "\u2581\u0926\u0943\u0937\u094d\u091f\u093e\u0928\u094d\u0924": 3628,
  "\u2581\u092b\u093e\u0930\u094b": 3629,
  "\u2581\u0938\u0930\u094d\u0935\u093e\u0902\u0928\u0940": 3630,
  "\u2581\"[": 3631,
  "\u2581Show": 3632,
  "\u2581overseers": 3633,
  "\u2581remind": 3634,
  "\u2581strengthened": 3635,
  "\u2581w": 3636,
  "\u2581\u0909\u091a\u094d\u091a": 3637,
  "\u2581\u0915\u0937\u094d\u091f": 3638,
  "\u2581\u092c\u0932\u093f\u0926\u093e\u0928": 3639,
  "\u2581\u0939\u0933\u0942\u0939\u0933\u0942": 3640,
  "\u2581IN": 3641,
  "\u2581beast": 3642,
  "\u2581declare": 3643,
  "\u2581due": 3644,
  "\u2581\u0906\u0932\u0947\u0932\u093e": 3645,
  "\u2581\u0924\u094d\u092f\u093e\u091a\u094d\u092f\u093e\u0936\u0940": 3646,
  "\u2581\u092e\u093e\u0928\u0932\u0947": 3647,
  "\u2581\u0932\u093e\u0917\u0924": 3648,
  "\u2581\u0938\u094b\u0921\u0932\u0947": 3649,
  "like": 3650,
  "\u0902\u092a\u0948\u0915\u0940": 3651,
  "\u0902\u092e\u0927\u094d\u092f\u0947": 3652,
  "\u091c\u0930": 3653,
  "\u2581Man": 3654,
  "\u2581abundance": 3655,
  "\u2581emotional": 3656,
  "\u2581heed": 3657,
  "\u2581lying": 3658,
  "\u2581major": 3659,
  "\u2581\u0905\u091a\u093e\u0928\u0915": 3660,
  "\u2581\u091c\u092c\u093e\u092c\u0926\u093e\u0930": 3661,
  "\u093e\u0926\u094d\u0935\u093e\u0930\u0947": 3662,
  "\u2581caring": 3663,
  "\u2581contains": 3664,
  "\u2581fish": 3665,
  "\u2581meal": 3666,
  "\u2581missionaries": 3667,
  "\u2581temptation": 3668,
  "\u2581weeks": 3669,
  "\u2581\u0906\u092a\u093e\u092a\u0932\u094d\u092f\u093e": 3670,
  "\u2581\u0918\u094d\u092f\u093e\u092f\u0932\u093e": 3671,
  "\u2581\u0926\u093f\u092f\u093e\u092c\u0932": 3672,
  "\u2581\u092a\u093e\u0935\u0932\u0947": 3673,
  "\u2581\u0938\u0930\u094d\u0935\u091c\u0923": 3674,
  "When": 3675,
  "\u2581Europe": 3676,
  "\u2581becomes": 3677,
  "\u2581cases": 3678,
  "\u2581letters": 3679,
  "\u2581wealth": 3680,
  "\u2581\u0916\u0902\u0921\u0923\u0940": 3681,
  "\u2581\u0924\u0940\u091a\u094d\u092f\u093e": 3682,
  "\u2581\u0928\u093f\u0935\u0921\u0932\u0947": 3683,
  "\u2581\u092e\u093e\u0923\u0938\u093e": 3684,
  "\u2581\u0935\u093f\u0935\u0947\u0915": 3685,
  "\u093e\u092a\u0930\u094d\u092f\u0902\u0924": 3686,
  "\u2581Micah": 3687,
  "\u2581Paradise": 3688,
  "\u2581business": 3689,
  "\u2581zealous": 3690,
  "\u2581\u092e\u093e\u0932\u0915": 3691,
  "\u2581\u092f\u0939\u094b\u0936\u0935\u093e": 3692,
  "\u2581\u0932\u094b\u0915\u093e\u0902\u0938\u093e\u0920\u0940": 3693,
  "\u2581\u0939\u0947\u0924\u0942": 3694,
  "\u2581Being": 3695,
  "\u2581agree": 3696,
  "\u2581eternal": 3697,
  "\u2581tribes": 3698,
  "\u2581widow": 3699,
  "1": 3700,
  "4": 3701,
  "\u0947\u0928": 3702,
  "\u2581attack": 3703,
  "\u2581encouraging": 3704,
  "\u2581table": 3705,
  "\u2581\u0928\u093f\u092f\u0941\u0915\u094d": 3706,
  "\u2581\u092a\u094d\u0930\u0936\u0902\u0938\u093e": 3707,
  "\u2581\u092e\u0939\u0924\u094d\u0924\u094d\u0935\u092a\u0942\u0930\u094d\u0923": 3708,
  "\u2581\u092e\u093e\u0928\u0935\u093e\u0902\u0928\u093e": 3709,
  "ah": 3710,
  "\u2581basic": 3711,
  "\u2581drawn": 3712,
  "\u2581escape": 3713,
  "\u2581evident": 3714,
  "\u2581forgiveness": 3715,
  "\u2581\u091a\u0930\u094d\u091a": 3716,
  "\u2581\u092a\u0930\u0935\u093e\u0928\u0917\u0940": 3717,
  "\u2581\u0938\u0930\u094d\u0935\u0915\u093e\u0933": 3718,
  "\u2581\u0938\u093e\u092e\u093e\u0928\u094d\u092f": 3719,
  "\u2581\u0938\u0941\u0930\u0935\u093e\u0924\u0940\u0932\u093e": 3720,
  "be": 3721,
  "ity": 3722,
  "\u2581active": 3723,
  "\u2581dust": 3724,
  "\u2581homes": 3725,
  "\u2581\u0928\u093f\u0930\u094b\u092a": 3726,
  "\u2581\u0928\u0940\u091f": 3727,
  "\u2581\u0935\u0930\u0940\u0932": 3728,
  "\u2581careful": 3729,
  "\u2581convinced": 3730,
  "\u2581covered": 3731,
  "\u2581race": 3732,
  "\u2581reasonable": 3733,
  "\u2581resist": 3734,
  "\u2581star": 3735,
  "\u2581wood": 3736,
  "\u2581\u0905\u0927\u093f\u0915\u093e\u0931\u094d": 3737,
  "\u2581\u0905\u0938\u093e\u0935\u0940": 3738,
  "\u2581\u0917\u094b\u0937\u094d\u091f\u0940\u0902\u091a\u0940": 3739,
  "\u2581border": 3740,
  "\u2581practices": 3741,
  "\u2581\u0906\u0928\u0902\u0926\u093f\u0924": 3742,
  "\u2581\u091c\u094d\u092f\u093e\u0902\u0928\u0940": 3743,
  "\u2581\u092a\u094d\u0930\u094c\u0922": 3744,
  "\u2581\u0938\u093f\u0902\u0939": 3745,
  "quite": 3746,
  "\u092e\u0927\u0942\u0928": 3747,
  "\u0930\u094d": 3748,
  "\u2581iron": 3749,
  "\u2581\u0915\u093e\u0933\u0940": 3750,
  "\u2581\u0920\u0947\u0935\u0923\u0947": 3751,
  "\u2581\u0927\u094b\u0915\u094d\u092f\u093e": 3752,
  "\u2581\u092a\u093e\u092f\u093e": 3753,
  "\u2581\u092c\u0930\u0940\u091a": 3754,
  "\u2581\u0938\u093e\u0902\u0917\u0924\u093e\u0924": 3755,
  "\u2581approval": 3756,
  "\u2581medical": 3757,
  "\u2581refuge": 3758,
  "\u2581relief": 3759,
  "\u2581viewed": 3760,
  "\u2581\u0915\u0930\u0940\u0924\u093e": 3761,
  "\u2581\u092f\u093e\u092c\u093e\u092c\u0924\u0940\u0924": 3762,
  "\u2581\u0930\u093e\u0939\u093f\u0932\u094b": 3763,
  "\u2581energy": 3764,
  "\u2581ought": 3765,
  "\u2581road": 3766,
  "\u2581\u0924\u0936\u0940": 3767,
  "\u2581air": 3768,
  "\u2581\u0924\u094d\u092f\u093e\u0902\u091a\u094d\u092f\u093e\u0938\u093e\u0920\u0940": 3769,
  "\u2581\u0926\u093e\u0916\u0935\u0924\u094b": 3770,
  "\u2581\u092e\u0942\u0932": 3771,
  "\u2581\u0930\u093e\u0939\u0923\u094d\u092f\u093e\u091a\u0940": 3772,
  "\u2581\u0930\u094b\u091c\u0940": 3773,
  "he": 3774,
  "responsibilities": 3775,
  "\u0928\u0902\u0924\u0930": 3776,
  "\u2581Questions": 3777,
  "\u2581harm": 3778,
  "\u2581upright": 3779,
  "\u2581\u0915\u093e\u0932\u093e\u0902\u0924\u0930\u093e\u0928\u0947": 3780,
  "\u2581\u091c\u093e\u092f\u091a\u0947": 3781,
  "\u2581\u092a\u094d\u0930\u091a\u093e\u0930\u0915": 3782,
  "\u2581\u092d\u0942\u092e\u0940": 3783,
  "\u2581\u0935\u093f\u0935\u093f\u0927": 3784,
  "\u2581\u0936\u094d\u0930\u0947\u0937\u094d\u0920": 3785,
  "\u2581\u0938\u093e\u0939\u091c\u093f\u0915\u091a": 3786,
  "\u2581\u0938\u0947\u0935\u093e\u0915\u093e\u0930\u094d\u092f\u093e\u0924": 3787,
  "\u0906\u092e\u094d\u0939\u0940": 3788,
  "\u2581assist": 3789,
  "\u2581consideration": 3790,
  "\u2581foot": 3791,
  "\u2581patient": 3792,
  "\u2581\u092c\u0938\u0942\u0928": 3793,
  "\u2581\u0930\u0925": 3794,
  "\u2581\u0935\u0948\u0935\u093e\u0939\u093f\u0915": 3795,
  "\u2581\u0935\u094d\u092f\u0935\u0939\u093e\u0930": 3796,
  "Name": 3797,
  "mong": 3798,
  "\u090f\u0915": 3799,
  "\u2581Boston": 3800,
  "\u2581Help": 3801,
  "\u2581arise": 3802,
  "\u2581bearing": 3803,
  "\u2581\u0936\u092c\u094d\u0926\u093e\u0902\u0924": 3804,
  "\u2581\u0918\u094b\u0937\u093f\u0924": 3805,
  "\u2581\u092a\u0921\u0924\u094b": 3806,
  "\u2581\u092d\u094c\u0924\u093f\u0915": 3807,
  "\u2581\u092e\u0939\u093f\u0928\u094d\u092f\u093e\u0924": 3808,
  "5": 3809,
  "\u2581easily": 3810,
  "\u2581east": 3811,
  "\u2581hair": 3812,
  "\u2581\u0905\u092a\u0930\u093e\u0927": 3813,
  "\u2581\u0906\u091c\u093e\u0930": 3814,
  "\u2581\u0915\u093e\u0922\u0932\u0947": 3815,
  "\u2581\u091c\u094b\u0930": 3816,
  "\u2581\u0920\u0930\u0932\u0947": 3817,
  "\u2581\u0924\u094d\u092f\u093e\u0902\u091a\u094d\u092f\u093e\u0915\u0921\u0947": 3818,
  "\u2581\u0926\u092f\u093e\u0933\u0942": 3819,
  "\u2581\u0939\u091c\u093e\u0930\u094b": 3820,
  "ch": 3821,
  "\u2581Baal": 3822,
  "\u2581Earth": 3823,
  "\u2581Moab": 3824,
  "\u2581\u0915\u0947\u0902\u0926\u094d\u0930\u093f\u0924": 3825,
  "\u2581affected": 3826,
  "\u2581improve": 3827,
  "\u2581referred": 3828,
  "\u2581rejected": 3829,
  "\u2581\u0906\u0930\u094b\u0917\u094d\u092f": 3830,
  "\u258122,": 3831,
  "\u2581American": 3832,
  "\u2581host": 3833,
  "\u2581\u0905\u0927\u0940\u0928": 3834,
  "\u2581\u0913\u0933\u0916\u0932\u0947": 3835,
  "\u2581\u091c\u093e\u0917\u0943\u0924": 3836,
  "\u2581\u092a\u094d\u0930\u0926\u0947\u0936\u093e\u0924": 3837,
  "\u2581\u092a\u094d\u0930\u0935\u0943\u0924\u094d\u0924\u0940": 3838,
  "\u2581\u0938\u0939\u092d\u093e\u0917\u0940": 3839,
  "\u2581aspects": 3840,
  "\u2581immorality": 3841,
  "\u2581instruction": 3842,
  "\u2581invitation": 3843,
  "\u2581prospect": 3844,
  "\u2581satisfaction": 3845,
  "\u2581\u0924\u094d\u092f\u093e\u091a\u094d\u092f\u093e\u092c\u0930\u094b\u092c\u0930": 3846,
  "\u2581\u0926\u0947\u0923\u0917\u0940": 3847,
  "\u2581\u092f\u093e\u0930\u094d\u0926\u0947\u0928": 3848,
  "org": 3849,
  "\u0926\u0948\u0935": 3850,
  "\u2581\u0915\u094b\u0936": 3851,
  "\u2581\u0916\u094d\u0930\u093f\u0938\u094d\u0924\u093e\u091a\u0947": 3852,
  "\u2581\u0918\u0947\u0924\u093e": 3853,
  "\u2581\u0936\u0915\u094d\u0924\u0940": 3854,
  "\u258160": 3855,
  "\u2581Ephraim": 3856,
  "\u2581Manasseh": 3857,
  "\u2581companions": 3858,
  "\u2581direct": 3859,
  "\u2581fill": 3860,
  "\u2581finally": 3861,
  "\u2581heads": 3862,
  "\u2581reported": 3863,
  "\u2581\u0918\u0947\u0923\u094d\u092f\u093e\u091a\u093e": 3864,
  "\u2581Catholic": 3865,
  "\u2581Which": 3866,
  "\u2581\u0926\u093e\u0935\u093f\u0926\u093e\u0928\u0947": 3867,
  "\u2581\u0928\u0947\u092e\u0923\u0942\u0915": 3868,
  "\u2581\u092a": 3869,
  "_": 3870,
  "\u2581German": 3871,
  "\u2581immoral": 3872,
  "\u2581minds": 3873,
  "\u2581weak": 3874,
  "\u2581\u0916\u093e\u0924\u0930\u0940": 3875,
  "\u2581\u0935\u093e\u0923\u0940": 3876,
  "\u2581\u0938\u094b\u092c\u0924": 3877,
  "\u2581\u0969\u096e": 3878,
  "\u2581Every": 3879,
  "\u2581Hav": 3880,
  "\u2581advantage": 3881,
  "\u2581glad": 3882,
  "\u2581south": 3883,
  "\u2581teaches": 3884,
  "\u2581verse": 3885,
  "\u2581\u0915\u094b\u0923\u0915\u094b\u0923\u0924\u094d\u092f\u093e": 3886,
  "\u2581\u0905\u0936\u0915\u094d\u092f": 3887,
  "\u2581\u0924\u094d\u092f\u093e\u0935\u093f\u0937\u092f\u0940": 3888,
  "\u2581\u092e\u0928\u0941\u0937\u094d\u092f\u093e\u091a\u094d\u092f\u093e": 3889,
  "\u2581\u092e\u0940\u0916\u093e": 3890,
  "\u2581\u0939": 3891,
  "\u2581Jonah": 3892,
  "\u2581Once": 3893,
  "\u2581demons": 3894,
  "\u2581loss": 3895,
  "\u2581\u0932\u0947\u0916\u0915": 3896,
  "\u2581worthy": 3897,
  "\u2581\u0939\u094b\u0923\u0947": 3898,
  "\u0928\u094d": 3899,
  "\u2581Here": 3900,
  "\u2581perform": 3901,
  "\u2581social": 3902,
  "\u2581\u0906\u092a\u0932\u094d\u092f\u093e\u091c\u0935\u0933": 3903,
  "\u2581\u091a\u093f\u0924": 3904,
  "\u2581\u0928\u0947\u092e\u0915\u0947": 3905,
  "\u2581\u092f\u0947\u0924\u0902": 3906,
  "\u2581\u0930\u093e\u091c\u094d\u092f\u093e\u0924": 3907,
  "\u2581\u0938\u0902\u0926\u0930\u094d\u092d\u093e\u0924": 3908,
  "\u2581Children": 3909,
  "\u2581correct": 3910,
  "\u2581pleased": 3911,
  "\u2581police": 3912,
  "\u2581\u0915\u093e\u0930\u0923\u0947": 3913,
  "\u2581\u092d\u0935\u093f\u0937\u094d\u092f": 3914,
  "\u2581\u0935\u0933\u0923": 3915,
  "\u0930\u094b": 3916,
  "\u2581100": 3917,
  "\u2581bound": 3918,
  "\u2581conversation": 3919,
  "\u2581formed": 3920,
  "\u2581society": 3921,
  "\u2581therein": 3922,
  "\u2581\u0905\u0939\u093e\u092c": 3923,
  "\u2581\u0915\u0930\u0923\u093e\u0931\u094d\u092f\u093e": 3924,
  "\u2581\u092c\u093e\u091c\u0942": 3925,
  "\u2581\u092e\u0927\u0940\u0932": 3926,
  "\u0927": 3927,
  "\u2581N": 3928,
  "\u2581growth": 3929,
  "\u2581opportunities": 3930,
  "\u2581relative": 3931,
  "\u2581valley": 3932,
  "\u2581\u0906\u0935\u0921\u0924\u0902": 3933,
  "\u2581\u0917\u0930\u091c\u0947\u091a\u0947": 3934,
  "\u2581\u0921\u094b\u0902\u0917\u0930": 3935,
  "\u2581\u0924\u0938\u093e": 3936,
  "\u2581\u0924\u0941\u091d\u094d\u092f\u093e\u0935\u0930": 3937,
  "\u2581\u092e\u0941\u0932\u093e\u0902\u091a\u094d\u092f\u093e": 3938,
  "\u2581\u0938\u093e\u0915\u094d\u0937\u0940\u0926\u093e\u0930\u093e\u0902\u0928\u0940": 3939,
  "\u2581cubits": 3940,
  "\u2581faithfully": 3941,
  "\u2581increased": 3942,
  "\u2581issues": 3943,
  "\u2581statement": 3944,
  "\u2581\u0906\u091a\u0930\u0923": 3945,
  "\u2581\u091c\u0917\u0924": 3946,
  "\u2581\u0926\u0915\u094d\u0937\u093f\u0923": 3947,
  "\u2581\u0935\u0924\u0928": 3948,
  "\u2581\u0938\u0930\u0915\u093e\u0930": 3949,
  "\u2581\u0969\u096c": 3950,
  "\u2581Benjamin": 3951,
  "\u2581Surely": 3952,
  "\u2581assured": 3953,
  "\u2581essential": 3954,
  "\u2581file": 3955,
  "\u2581particular": 3956,
  "\u2581particularly": 3957,
  "\u2581pieces": 3958,
  "\u2581reached": 3959,
  "\u2581\u0932\u093e\u091c": 3960,
  "no": 3961,
  "\u2581Pennsylvania": 3962,
  "\u2581clothes": 3963,
  "\u2581\u0905\u0927\u094d\u092f\u093e\u092f": 3964,
  "\u2581\u0905\u0936\u094d\u0936\u0942\u0930": 3965,
  "\u2581\u0909\u0926\u093e\u0939\u0930\u0923\u0947": 3966,
  "\u2581\u091c\u093e\u0917\u0924\u093f\u0915": 3967,
  "\u2581\u092a\u0939\u093f\u0932\u0940": 3968,
  "\u2581\u0938\u092e\u091c\u0924": 3969,
  "\u0935\u093f\u0936\u094d": 3970,
  "\u2581animal": 3971,
  "\u2581comments": 3972,
  "\u2581pattern": 3973,
  "\u2581\u092a\u0942\u091c\u093e": 3974,
  "\u2581\u092c\u0930\u093e\u091a": 3975,
  "for": 3976,
  "\u2581Under": 3977,
  "\u2581bought": 3978,
  "\u2581commit": 3979,
  "\u2581doctor": 3980,
  "\u2581extent": 3981,
  "\u2581wedding": 3982,
  "\u2581\u0915\u0947\u0932\u094d\u092f\u093e\u0928\u0902\u0924\u0930": 3983,
  "\u2581\u0928\u0940\u0924\u093f": 3984,
  "\u2581\u092e\u0939\u0924\u094d\u0924\u094d\u0935\u093e\u091a\u0902": 3985,
  "\u2581\u0938\u0941\u0916": 3986,
  "\u2581Sea": 3987,
  "\u2581Study": 3988,
  "\u2581possess": 3989,
  "\u2581\u0924\u094d\u092f\u093e\u0905\u0930\u094d\u0925\u0940": 3990,
  "x": 3991,
  "\u2581Elisha": 3992,
  "\u2581box": 3993,
  "\u2581flee": 3994,
  "\u2581process": 3995,
  "\u2581sees": 3996,
  "\u2581worth": 3997,
  "\u2581\u092a\u0932\u093f\u0937\u094d\u091f\u094d\u092f\u093e\u0902": 3998,
  "\u2581\u092a\u093e\u090a\u0938": 3999,
  "\u2581\u0935\u093e\u0930\u0902\u0935\u093e\u0930": 4000,
  "\u2581\u0935\u0943\u0915\u094d\u0937": 4001,
  "\u2581\u0938\u092e\u094b\u0930": 4002,
  "\u0926\u093e\u0930": 4003,
  "\u2581adds": 4004,
  "\u2581discussion": 4005,
  "\u2581helpful": 4006,
  "\u2581listened": 4007,
  "\u2581secular": 4008,
  "\u2581tender": 4009,
  "\u2581treatment": 4010,
  "\u2581warm": 4011,
  "\u2581\u0915\u093e\u092e\u0947": 4012,
  "\u2581\u091c\u0947\u0930\u0942\u0938\u0932\u0947\u092e": 4013,
  "\u2581\u0924\u0924\u094d\u0924\u094d\u0935": 4014,
  "\u2581\u0926\u094b\u0937\u0940": 4015,
  "\u2581\u092a\u0939\u093f\u0932\u094d\u092f\u093e\u0902\u0926\u093e": 4016,
  "\u2581\u092a\u094c\u0932\u093e\u091a\u094d\u092f\u093e": 4017,
  "\u2581\u092e\u093f\u0933\u093e\u0932\u0902": 4018,
  "\u2581amount": 4019,
  "\u2581causes": 4020,
  "\u2581possession": 4021,
  "\u2581red": 4022,
  "\u2581removed": 4023,
  "\u2581\u0911\u092b": 4024,
  "\u2581\u0915\u0941\u091f\u0941\u0902\u092c\u093e\u0924\u0940\u0932": 4025,
  "\u2581\u0924\u0933\u091f\u0940\u092a\u093e": 4026,
  "\u2581\u0924\u093e\u0915\u0940\u0926": 4027,
  "\u2581\u0924\u0941\u091d\u094d\u092f\u093e\u0915\u0921\u0947": 4028,
  "\u092a\u0942\u0930\u094d\u0923": 4029,
  "\u093e\u092c\u0930\u094b\u092c\u0930": 4030,
  "\u093f\u0902\u0917": 4031,
  "\u2581Really": 4032,
  "\u2581error": 4033,
  "\u2581purposes": 4034,
  "\u2581remains": 4035,
  "\u2581sinful": 4036,
  "\u2581tomorrow": 4037,
  "\u2581writer": 4038,
  "\u2581\u092a\u0933": 4039,
  "\u2581\u092e\u0941\u0932\u093e": 4040,
  "man": 4041,
  "\u2581Think": 4042,
  "\u2581\u0915\u093e\u092f\u092e": 4043,
  "\u2581\u091a\u094b\u0930": 4044,
  "\u2581\u092a\u0930\u094d\u092f\u093e\u092f": 4045,
  "\u2581\u0935\u0930\u094d\u0937\u093e\u0902\u091a\u094d\u092f\u093e": 4046,
  "\u2581joined": 4047,
  "\u2581\u0924\u0940\u091a\u093e": 4048,
  "\u2581\u0928\u0947\u092e\u0932\u0947": 4049,
  "\u2581\u092f\u091c\u094d\u091e": 4050,
  "\u2581\u0938\u0902\u0917\u0940\u0924": 4051,
  "\u0935\u093f": 4052,
  "\u093e\u0932": 4053,
  "\u093e\u0938\u093e\u0930\u0916\u093e": 4054,
  "\u2581Australia": 4055,
  "\u2581Has": 4056,
  "\u2581captivity": 4057,
  "\u2581firstborn": 4058,
  "\u2581lifted": 4059,
  "\u2581\u0918\u0921\u0942\u0928": 4060,
  "\u2581\u0924\u094d\u092f\u093e\u0902\u091a\u094d\u092f\u093e\u092c\u0930\u094b\u092c\u0930": 4061,
  "\u2581busy": 4062,
  "\u2581husbands": 4063,
  "\u2581insight": 4064,
  "\u2581rulers": 4065,
  "\u2581sing": 4066,
  "\u2581studied": 4067,
  "\u2581translation": 4068,
  "\u2581welcome": 4069,
  "\u2581\u0915\u094d\u0937\u092e\u0924\u093e": 4070,
  "\u2581\u092c\u0938": 4071,
  "\u2581\u092e\u093f\u0933\u0924\u093e\u0924": 4072,
  "\u2581\u0938\u0948\u0924\u093e\u0928\u093e\u0928\u0947": 4073,
  "\u091d": 4074,
  "\u093e\u091c\u0935\u0933": 4075,
  "\u2581reality": 4076,
  "\u2581remnant": 4077,
  "\u2581trained": 4078,
  "\u2581\u0906\u0930\u094d\u0925\u093f\u0915": 4079,
  "\u2581\u0928\u093f\u0930\u0928\u093f\u0930\u093e\u0933": 4080,
  "\u2581\u0938\u092e\u0930\u094d\u0925": 4081,
  "\u2581\u0938\u093e\u0902\u0917\u093f\u0924\u0932\u0940": 4082,
  "L": 4083,
  "\u0949": 4084,
  "\u2581departed": 4085,
  "\u2581inner": 4086,
  "\u2581lessons": 4087,
  "\u2581list": 4088,
  "\u2581\u0906\u0935\u0921\u0924\u093e\u0924": 4089,
  "\u2581\u0928\u093e\u0935\u093e\u091a\u0940": 4090,
  "\u2581\u0928\u093f\u092f\u0902\u0924\u094d\u0930\u0923": 4091,
  "\u2581\u0928\u093f\u0930\u094d\u0927\u093e\u0930": 4092,
  "\u2581\u0932\u0922\u093e\u0908": 4093,
  "\u2581\u0938\u092e\u0930\u094d\u092a\u0923": 4094,
  "ive": 4095,
  "z": 4096,
  "\u0908": 4097,
  "\u2581heavy": 4098,
  "\u2581meditate": 4099,
  "\u2581persons": 4100,
  "\u2581successful": 4101,
  "\u2581thanks": 4102,
  "\u2581\u0930\u093e\u091c\u0915\u0940\u092f": 4103,
  "\u2581\u0930\u093e\u091c\u094d\u092f\u093e\u091a\u0940": 4104,
  "\u2581\u0938\u094d\u0935\u0924\u0903\u091a\u0947": 4105,
  "\u093e\u0928\u093e": 4106,
  "\u2581Japanese": 4107,
  "\u2581appearance": 4108,
  "\u2581discussed": 4109,
  "\u2581poured": 4110,
  "\u2581wish": 4111,
  "\u2581\u0906\u0924\u094d\u092e\u093f\u0915": 4112,
  "\u2581\u091a\u093e\u0902\u0917\u0932\u0902": 4113,
  "\u2581\u0924\u0933": 4114,
  "\u2581\u092a\u094d\u0930\u0924\u093f\u0915\u093e\u0930": 4115,
  "\u2581\u092e\u094d\u0939\u0923\u0923\u094d\u092f\u093e": 4116,
  "\u2581\u092f\u0930\u0941\u0936\u0932\u0947\u092e\u092e\u0927\u094d\u092f\u0947": 4117,
  "ra": 4118,
  "\u093e\u0935\u0930\u0942\u0928": 4119,
  "\u258125.": 4120,
  "\u2581leading": 4121,
  "\u2581touched": 4122,
  "\u2581\u0906\u092a\u0932\u094d\u092f\u093e\u0938\u093e\u0920\u0940": 4123,
  "\u2581\u0909": 4124,
  "\u2581\u092a\u0921\u0932\u0940": 4125,
  "\u2581\u092f\u0939\u094b\u0935\u093e\u0938\u094b\u092c\u0924": 4126,
  "\u093e\u0938\u093e\u0930\u0916\u0947": 4127,
  "\u2581Two": 4128,
  "\u2581associated": 4129,
  "\u2581ear": 4130,
  "\u2581translated": 4131,
  "\u2581unique": 4132,
  "\u2581\u0906\u0923\u0942\u0928": 4133,
  "\u2581\u0916\u094d\u0930\u093f\u0938\u094d\u0924\u093e\u0928\u0947": 4134,
  "\u258170": 4135,
  "\u2581Brooklyn": 4136,
  "\u2581Church": 4137,
  "\u2581Furthermore": 4138,
  "\u2581Look": 4139,
  "\u2581Without": 4140,
  "\u2581difference": 4141,
  "\u2581hosts": 4142,
  "\u2581succeed": 4143,
  "\u2581values": 4144,
  "\u2581\u0905\u0928\u094d\u092f\u093e\u092f": 4145,
  "\u2581\u091c\u092e\u093f\u0928\u0940": 4146,
  "\u2581\u0926\u094d\u092f\u093e\u092f\u0932\u093e": 4147,
  "\u2581\u0938\u0930\u094d\u0935\u0915\u093e\u0939\u0940": 4148,
  "\u2581\u096a\u096b": 4149,
  "\u2581contrary": 4150,
  "\u2581dangerous": 4151,
  "\u2581heartfelt": 4152,
  "\u2581refers": 4153,
  "\u2581treasure": 4154,
  "\u2581undeserved": 4155,
  "\u2581\u0906\u0920": 4156,
  "\u2581\u090f\u0915\u0939\u0940": 4157,
  "\u2581\u092a\u093e\u0935\u0932\u093e": 4158,
  "\u2581\u0938\u0902\u0915\u094d\u0937\u093f\u092a\u094d\u0924": 4159,
  "\u093e\u0902\u092a\u0947\u0915\u094d\u0937\u093e": 4160,
  "\u2581Explain": 4161,
  "\u2581closely": 4162,
  "\u2581decide": 4163,
  "\u2581responded": 4164,
  "\u2581telling": 4165,
  "\u2581\u0906\u092f": 4166,
  "\u2581\u0915\u093f\u0902\u092e\u0924": 4167,
  "\u2581\u0918\u0921\u0935\u0942\u0928": 4168,
  "\u2581\u092c\u093e\u0902\u0927\u0932\u0947": 4169,
  "\u2581\u0938\u0902\u0935\u093e\u0926": 4170,
  "F": 4171,
  "v": 4172,
  "\u2581mature": 4173,
  "\u2581path": 4174,
  "\u2581\u092f\u094b\u0928\u093e\u0925\u093e\u0928": 4175,
  "\u2581\u0936\u094d": 4176,
  "\u2581\u0938\u094b\u0928\u0947": 4177,
  "\u2581\u0938\u094d\u0935\u091a\u094d\u091b": 4178,
  "\u2581Colossians": 4179,
  "\u2581Note": 4180,
  "\u2581Re": 4181,
  "\u2581September": 4182,
  "\u2581calling": 4183,
  "\u2581separate": 4184,
  "\u2581shepherds": 4185,
  "\u2581tent": 4186,
  "\u2581top": 4187,
  "\u2581\u0906\u0917": 4188,
  "\u2581\u0906\u0927\u093e\u0930\u093e\u0935\u0930": 4189,
  "\u2581\u0915\u0933\u092a": 4190,
  "\u2581\u0924\u094d\u092f\u093e\u0902\u091a\u094d\u092f\u093e\u0924": 4191,
  "\u2581\u0928\u091c\u0930\u0947\u0924": 4192,
  "\u2581\u092a\u093e\u0920\u0932\u093e\u0917": 4193,
  "\u2581\u092c\u094b\u0932": 4194,
  "\u2581\u092e\u0939\u0924\u094d\u0924\u094d\u0935\u093e\u091a\u094d\u092f\u093e": 4195,
  "\u2581Faith": 4196,
  "\u2581Likewise": 4197,
  "\u2581behavior": 4198,
  "\u2581capital": 4199,
  "\u2581directed": 4200,
  "\u2581reigned": 4201,
  "\u2581\u0906\u0920\u0935\u0924\u0947": 4202,
  "\u2581\u0928\u093f\u0930\u094d\u092e\u093f\u0924\u0940": 4203,
  "\u2581\u092a\u093e\u0939\u093f\u0932\u0940": 4204,
  "\u2581\u092c\u094b\u0932\u0924\u093e": 4205,
  "\u2581\u092f\u0935\u093e\u092c": 4206,
  "\u2581\u0930\u093e\u0937\u094d\u091f\u094d\u0930\u0947": 4207,
  "\u2581\u0938\u0947\u0935\u093e\u0915\u093e\u0930\u094d\u092f": 4208,
  "of": 4209,
  "\u2581burned": 4210,
  "\u2581gates": 4211,
  "\u2581lion": 4212,
  "\u2581notice": 4213,
  "\u2581subjects": 4214,
  "\u2581\u0915\u093e\u0922\u0932\u093e": 4215,
  "\u2581\u0917\u094b\u0937\u094d\u091f\u0940\u0902\u0935\u0930": 4216,
  "\u2581\u092a\u0930\u094d\u092f\u0902\u0924": 4217,
  "\u2581\u092c\u093e\u0902\u0927\u0915\u093e\u092e": 4218,
  "\u2581\u092c\u093e\u092f\u092c\u0932\u091a\u0947": 4219,
  "\u2581\u0936\u0915\u0924\u0902": 4220,
  "There": 4221,
  "ous": 4222,
  "\u0906\u0924\u093e": 4223,
  "\u2581Samaria": 4224,
  "\u2581dream": 4225,
  "\u2581legal": 4226,
  "\u2581occur": 4227,
  "\u2581receiving": 4228,
  "\u2581\u0905\u0928\u0948\u0924\u093f\u0915": 4229,
  "\u2581\u092c\u093e\u092c\u0947\u0932\u091a\u094d\u092f\u093e": 4230,
  "\u2581\u0936": 4231,
  ".[1]": 4232,
  "@": 4233,
  "\u0921\u0940": 4234,
  "\u0923\u094d\u092f\u093e\u0924": 4235,
  "\u2581apart": 4236,
  "\u2581assure": 4237,
  "\u2581claim": 4238,
  "\u2581low": 4239,
  "\u2581outstanding": 4240,
  "\u2581sky": 4241,
  "\u2581stayed": 4242,
  "\u2581wide": 4243,
  "\u2581\u0935\u0930\u094d\u0917": 4244,
  "\u2581\u0938\u094d\u0924\u094b\u0924\u094d\u0930\u0915\u0930\u094d\u0924\u094d\u092f\u093e": 4245,
  "\u2581Please": 4246,
  "\u2581applied": 4247,
  "\u2581herself": 4248,
  "\u2581parable": 4249,
  "\u2581performed": 4250,
  "\u2581root": 4251,
  "\u2581\u0917\u0930\u094d\u0935\u093f\u0937\u094d\u0920": 4252,
  "\u2581\u0935\u092f": 4253,
  "\u2581fat": 4254,
  "\u2581feast": 4255,
  "\u2581lest": 4256,
  "\u2581seventh": 4257,
  "\u2581\u0913": 4258,
  "\u2581\u092e\u0928\u0941\u0937\u094d\u092f\u093e\u0932\u093e": 4259,
  "\u2581\u092e\u093e\u091d\u094d\u092f\u093e\u092c\u0930\u094b\u092c\u0930": 4260,
  "\u2581\u092e\u093f\u0933\u0923\u093e\u0931\u094d": 4261,
  "\u2581\u092f\u093e\u0902\u0924": 4262,
  "\u2581Gentiles": 4263,
  "\u2581anxiety": 4264,
  "\u2581growing": 4265,
  "\u2581join": 4266,
  "\u2581remove": 4267,
  "\u2581\u092e\u093e\u091d\u094d\u092f\u093e\u0936\u0940": 4268,
  "\u2581\u0932\u093e\u0916\u094b": 4269,
  "How": 4270,
  "\u2581bond": 4271,
  "\u2581dwelling": 4272,
  "\u2581primary": 4273,
  "\u2581\u0907\u0938\u0939\u093e\u0915": 4274,
  "\u2581\u091c\u094d\u092f\u093e\u092e\u0941\u0933\u0947": 4275,
  "\u2581\u0925\u094b\u0930": 4276,
  "\u2581\u092a\u0921\u0924": 4277,
  "\u2581\u092a\u0941\u0938\u094d\u0924\u0915\u093e\u0924\u0940\u0932": 4278,
  "\u092d": 4279,
  "\u2581cup": 4280,
  "\u2581incense": 4281,
  "\u2581indicate": 4282,
  "\u2581length": 4283,
  "\u2581willingly": 4284,
  "\u2581\u0928\u093f\u092f\u092e\u0928": 4285,
  "\u2581\u0928\u093f\u0937\u094d\u0915\u0930\u094d\u0937": 4286,
  "\u2581\u0935\u093e\u0924\u093e\u0935\u0930\u0923": 4287,
  "\u2581\u0938\u0935\u092f": 4288,
  "G": 4289,
  "out": 4290,
  "\u2581Land": 4291,
  "\u2581prophecies": 4292,
  "\u2581\u0906\u0935\u0921": 4293,
  "\u2581\u092c\u093e\u092c\u0947\u0932": 4294,
  "\u2581\u092e\u093f\u0933\u093e\u0932\u0947\u0932\u094d\u092f\u093e": 4295,
  "\u2581\u092f\u093e\u0924\u0940\u0932": 4296,
  "\u2581\u0938\u0941": 4297,
  "\u2581\u0939\u0935\u0902": 4298,
  "\u0924\u093e\u0928\u093e": 4299,
  "\u2581\u091a\u093f\u0924\u094d\u0930\u092a\u091f": 4300,
  "\u2581\u0927\u094b\u0915\u093e": 4301,
  "\u2581\u092f\u093e\u0915\u0921\u0947": 4302,
  "\u2581\u0936\u0915\u0924\u0940\u0932": 4303,
  "\u2581\u0938\u0924\u094d\u092f\u093e\u0924": 4304,
  "\u2581\u0938\u094d\u092a\u0930\u094d\u0936": 4305,
  "\u093e\u0915\u0921\u0942\u0928": 4306,
  "\u2581Family": 4307,
  "\u2581mere": 4308,
  "\u2581rose": 4309,
  "\u2581\u0909\u0926\u093e\u0939\u0930\u0923\u093e\u0935\u0930\u0942\u0928": 4310,
  "\u2581\u090f\u0915\u0942\u0923": 4311,
  "\u2581\u0926\u0947\u0936\u093e\u0924\u0940\u0932": 4312,
  "\u2581\u0928\u093f\u0918\u093e\u0932\u093e": 4313,
  "\u2581\u0928\u093f\u092f\u092e\u093f\u0924": 4314,
  "ul": 4315,
  "\u0906\u092a\u0923": 4316,
  "\u0907": 4317,
  "\u2581Both": 4318,
  "\u2581endeavor": 4319,
  "\u2581joyful": 4320,
  "\u2581merely": 4321,
  "\u2581stopped": 4322,
  "\u2581\u091a\u093e\u0902\u0917\u0941\u0932\u092a\u0923\u093e": 4323,
  "\u2581\u0926\u0947\u0924\u093e\u0928\u093e": 4324,
  "\u2581\u0926\u0947\u0924\u0940\u0932": 4325,
  "\u2581\u092a\u0940\u0915": 4326,
  "\u2581\u092c\u0948\u0932": 4327,
  "\u2581\u092e\u094d\u0939\u0923\u0924\u0940\u0932": 4328,
  "\u2581\u0935\u0930\u094d\u0937\u093e\u0902\u091a\u0940": 4329,
  "day": 4330,
  "\u2581Prov": 4331,
  "\u2581factors": 4332,
  "\u2581phone": 4333,
  "\u2581powers": 4334,
  "\u2581promote": 4335,
  "\u2581recognized": 4336,
  "\u2581\u0905\u0936\u093e\u091a": 4337,
  "\u2581\u0907\u092b\u093f\u0938\u0915\u0930": 4338,
  "\u2581\u092d\u0930\u0942\u0928": 4339,
  "\u2581\u092f\u0947\u0936\u0942\u091a\u0940": 4340,
  "\u2581\u092f\u094b\u0939\u093e": 4341,
  "\u2581\u0930\u093e\u091c\u094d\u092f\u093e\u091a\u093e": 4342,
  "\u2581\u0935\u093f\u0926\u094d\u092f\u093e\u0930\u094d\u0925\u0940": 4343,
  "ies": 4344,
  "\u2581Work": 4345,
  "\u2581birds": 4346,
  "\u2581entertainment": 4347,
  "\u2581expressions": 4348,
  "\u2581fallen": 4349,
  "\u2581island": 4350,
  "\u2581placed": 4351,
  "\u2581reject": 4352,
  "\u2581sold": 4353,
  "\u2581\u0928\u0915\u094d\u0915\u0940": 4354,
  "\u2581\u092a\u0921\u0947\u0932": 4355,
  "\u2581\u092a\u0926\u093e\u0930\u094d\u0925": 4356,
  "\u2581\u092a\u093e\u092a\u0947": 4357,
  "\u2581\u092c\u093e\u0932": 4358,
  "\u2581\u092e\u094b\u0920\u094d\u092f\u093e\u0928\u0947": 4359,
  "\u2581\u0932\u093e\u0932": 4360,
  "\u258120,": 4361,
  "\u2581shame": 4362,
  "\u2581souls": 4363,
  "\u2581\u0905\u0938\u0923\u093e\u0931\u094d": 4364,
  "\u2581\u0915\u0933\u0947\u0932": 4365,
  "\u2581\u0926\u093f\u0932\u0947\u0932\u093e": 4366,
  "\u2581\u0926\u0947\u0935\u093e\u0938\u094b\u092c\u0924": 4367,
  "\u2581\u092c\u0939\u0941\u092e\u093e\u0928": 4368,
  "\u2581\u092e\u094b\u0936\u0947\u091a\u094d\u092f\u093e": 4369,
  "\u2581\u092e\u094d\u0939\u0923\u093e\u0932\u094b": 4370,
  "\u2581\u092f\u0939\u094b\u0935\u093e\u092c\u0926\u094d\u0926\u0932": 4371,
  "\u2581\u0932\u093e\u0935\u0942\u0928": 4372,
  "\u2581\u0938\u093e\u091c\u0930\u093e": 4373,
  "\u0908\u092f\u094b\u092c": 4374,
  "\u2581cold": 4375,
  "\u2581communication": 4376,
  "\u2581drinking": 4377,
  "\u2581produced": 4378,
  "\u2581\u0907\u0924\u0930\u093e\u0902\u091a\u094d\u092f\u093e": 4379,
  "\u2581\u0926\u093e\u0916\u0935\u0932\u093e": 4380,
  "\u2581\u0926\u093e\u0935\u093e": 4381,
  "\u2581\u092a\u094d\u0930\u0924\u094d\u092f\u0947\u0915\u093e\u0932\u093e": 4382,
  "\u2581\u0935\u0921\u093f\u0932\u093e\u0902\u0928\u093e": 4383,
  "\u2581Absalom": 4384,
  "\u2581dealings": 4385,
  "\u2581discovered": 4386,
  "\u2581handle": 4387,
  "\u2581relates": 4388,
  "\u2581\u0907\u0925\u0902": 4389,
  "\u2581\u0916\u0930\u0902\u0924\u0930": 4390,
  "\u2581\u091a\u0928": 4391,
  "\u2581\u0926\u0947\u0923\u094d\u092f\u093e\u091a\u0947": 4392,
  "\u2581\u0928\u0947": 4393,
  "\u2581\u0938\u094d\u0935\u0924\u0903\u091a\u0940": 4394,
  "\u0907\u0902\u0917\u094d\u0930\u091c\u0940": 4395,
  "\u2581Christianity": 4396,
  "\u2581Ecclesiastes": 4397,
  "\u2581Other": 4398,
  "\u2581grown": 4399,
  "\u2581listed": 4400,
  "\u2581marry": 4401,
  "\u2581straight": 4402,
  "\u2581\u0924\u0942\u091a": 4403,
  "\u2581\u0926\u093e\u0916\u0935": 4404,
  "\u2581\u0928\u0947\u0924\u0943\u0924\u094d\u0935": 4405,
  "\u2581\u092a\u0926\u094d\u0927\u0924\u0940\u0928\u0947": 4406,
  "\u2581\u092e\u0939\u0924\u094d\u0935": 4407,
  "\u2581\u0938\u0917\u0933\u094d\u092f\u093e\u0924": 4408,
  "\u2581\u096b\u0966": 4409,
  "\u2581conclude": 4410,
  "\u2581discern": 4411,
  "\u2581illustrate": 4412,
  "\u2581journey": 4413,
  "\u2581shut": 4414,
  "\u2581vessels": 4415,
  "\u2581\u0917\u0941\u092a\u094d\u0924": 4416,
  "\u2581\u091c\u0938\u093e": 4417,
  "\u2581\u091c\u0949\u0928": 4418,
  "\u2581\u092e\u0935\u093e\u092c": 4419,
  "\u2581\u0935\u0902\u0936": 4420,
  "\u2581\u0936\u093e\u0938\u094d\u0924\u094d\u0930\u0935\u091a\u0928": 4421,
  "\u2581\u0938\u092e\u093e\u0935\u093f\u0937\u094d\u091f": 4422,
  "hether": 4423,
  "\u0935\u0947": 4424,
  "\u2581adultery": 4425,
  "\u2581kindly": 4426,
  "\u2581\u092f\u0947\u0936\u0942\u0928\u0902": 4427,
  "\u2581\u0932\u093e": 4428,
  "\u2581\u0936\u093e\u092a": 4429,
  "\u2581\u0939\u094b\u0908\u092a\u0930\u094d\u092f\u0902\u0924": 4430,
  "\u2581America": 4431,
  "\u2581Deuteronomy": 4432,
  "\u2581Finally": 4433,
  "\u2581decades": 4434,
  "\u2581drive": 4435,
  "\u2581nine": 4436,
  "\u2581proud": 4437,
  "\u2581slain": 4438,
  "\u2581witnessing": 4439,
  "\u2581\u091c\u0940\u0935\u0928\u093e\u091a\u0940": 4440,
  "\u2581\u092a\u094d\u0930": 4441,
  "\u2581\u0938\u093e\u0926\u0930": 4442,
  "\u093e\u0928": 4443,
  "\u2581Imagine": 4444,
  "\u2581describes": 4445,
  "\u2581illness": 4446,
  "\u2581lift": 4447,
  "\u2581moment": 4448,
  "\u2581probably": 4449,
  "\u2581signs": 4450,
  "\u2581trial": 4451,
  "\u2581\u0906\u0923\u0916\u0940\u0928": 4452,
  "\u2581\u0932\u093e\u0935\u0932\u093e": 4453,
  "\u2581\u0935\u0902\u0936\u093e\u0924\u0940\u0932": 4454,
  "\u2581accomplished": 4455,
  "\u2581aid": 4456,
  "\u2581drew": 4457,
  "\u2581e": 4458,
  "\u2581mount": 4459,
  "\u2581setting": 4460,
  "\u2581\u091d\u093e\u0932\u0947\u0932\u0940": 4461,
  "\u2581\u092a\u094d\u0930\u091a\u0902\u0921": 4462,
  "\u2581\u0935\u094d\u0939\u093e\u0932": 4463,
  "\u2581\u0938\u094d\u0935\u0930\u094d\u0917\u093e\u0924\u0940\u0932": 4464,
  "\u2581Footnotes": 4465,
  "\u2581Time": 4466,
  "\u2581Zechariah": 4467,
  "\u2581copy": 4468,
  "\u2581exist": 4469,
  "\u2581poverty": 4470,
  "\u2581thank": 4471,
  "\u2581\u0915\u0933": 4472,
  "\u2581\u091d\u093e\u0921": 4473,
  "\u2581\u092d\u093e\u0930\u0924": 4474,
  "\u2581\u0936\u0947\u091c\u093e\u0931\u094d": 4475,
  "\u2581\u096a\u096a": 4476,
  "\u0936\u094d": 4477,
  "\u0937": 4478,
  "\u2581April": 4479,
  "\u2581Ezekiel": 4480,
  "\u2581Gospel": 4481,
  "\u2581caught": 4482,
  "\u2581community": 4483,
  "\u2581except": 4484,
  "\u2581faithfulness": 4485,
  "\u2581finished": 4486,
  "\u2581publication": 4487,
  "\u2581ran": 4488,
  "\u2581sinners": 4489,
  "\u2581\u0905\u0915\u094d\u0937\u0930": 4490,
  "\u2581\u092f\u093e\u0935\u0947": 4491,
  "\u2581\u0932\u093e\u0917\u0932\u0902": 4492,
  "\u2581\u096a\u0968": 4493,
  "ment": 4494,
  "\u2581Assyria": 4495,
  "\u2581Mexico": 4496,
  "\u2581\u0909\u092a\u091a\u093e\u0930": 4497,
  "\u2581\u0910\u0915\u0924": 4498,
  "\u2581\u0926\u0947\u0935\u093e\u092c\u0926\u094d\u0926\u0932": 4499,
  "\u2581\u0930\u093e\u0939\u0923\u094d\u092f\u093e\u091a\u093e": 4500,
  "\u2581\u0936\u0930\u0940\u0930\u093e\u0924": 4501,
  "\u2581Josiah": 4502,
  "\u2581October": 4503,
  "\u2581leaving": 4504,
  "\u2581\u0905\u0938\u0923\u093e\u0930": 4505,
  "\u2581\u0906\u0920\u0935\u0923\u0940\u0924": 4506,
  "\u2581\u0909\u0924\u094d\u0938\u0941\u0915": 4507,
  "\u2581\u0917\u0930\u091c\u0947\u091a\u0902": 4508,
  "\u2581\u0918\u0947\u0924\u0932\u094d\u092f\u093e\u092e\u0941\u0933\u0947": 4509,
  "\u2581\u0928\u093f\u0902\u0926\u093e": 4510,
  "\u2581\u092e\u0941\u0933\u093e\u0924": 4511,
  "\u2581\u0935\u093e\u091f\u093e": 4512,
  "\u2581\u0939\u094b\u0923\u094d\u092f\u093e\u0938\u093e\u0920\u0940": 4513,
  "lt": 4514,
  "un": 4515,
  "\u2581appears": 4516,
  "\u2581connection": 4517,
  "\u2581expected": 4518,
  "\u2581extreme": 4519,
  "\u2581feed": 4520,
  "\u2581forces": 4521,
  "\u2581foundation": 4522,
  "\u2581hatred": 4523,
  "\u2581ill": 4524,
  "\u2581neighbors": 4525,
  "\u2581plant": 4526,
  "\u2581prophetic": 4527,
  "\u2581resolve": 4528,
  "\u2581stick": 4529,
  "\u2581violent": 4530,
  "\u2581\u091c\u0923\u093e\u0902\u0928\u093e": 4531,
  "\u2581\u091c\u093f\u0924\u0915": 4532,
  "\u2581\u0920\u0947\u0935\u0924\u093e\u0924": 4533,
  "\u2581\u092a\u0930\u094d\u092f\u0935\u0947\u0915\u094d\u0937\u0915": 4534,
  "\u2581\u0930\u093e\u0939\u0923\u094d\u092f\u093e\u0938\u093e\u0920\u0940": 4535,
  "\u2581II": 4536,
  "\u2581Joab": 4537,
  "\u2581environment": 4538,
  "\u2581lasting": 4539,
  "\u2581wild": 4540,
  "\u2581\u0916\u093e\u090a": 4541,
  "\u2581\u091c\u094d\u092f\u093e\u091a\u094d\u092f\u093e": 4542,
  "\u2581\u0924\u093e\u0930\u093e": 4543,
  "\u2581\u0928\u094d\u092f\u093e\u092f\u093e\u0927\u0940\u0936": 4544,
  "\u2581\u092a\u0942\u0930\u094d\u0935": 4545,
  "\u2581\u092c\u094b\u0932\u0924\u093e\u0928\u093e": 4546,
  "\u2581BE": 4547,
  "\u2581Christendom": 4548,
  "\u2581Rom": 4549,
  "\u2581easier": 4550,
  "\u2581horses": 4551,
  "\u2581vain": 4552,
  "\u2581\u0910\u0915\u0932\u0940": 4553,
  "\u2581\u0915\u0933\u0924": 4554,
  "\u2581\u092c\u0933\u0915\u091f": 4555,
  "\u2581\u092e\u0928\u0936\u094d\u0936\u0947": 4556,
  "\u2581\u0935\u093f\u0930\u0941\u0926\u094d\u0927": 4557,
  "\u2581\u0936\u0939\u093e\u0923\u092a\u0923": 4558,
  "ti": 4559,
  "\u0909": 4560,
  "\u2581Am": 4561,
  "\u2581Teach": 4562,
  "\u2581bones": 4563,
  "\u2581burning": 4564,
  "\u2581cloud": 4565,
  "\u2581evidently": 4566,
  "\u2581famine": 4567,
  "\u2581freely": 4568,
  "\u2581glorious": 4569,
  "\u2581\u0916\u094b\u0932\u0940\u0924": 4570,
  "\u2581\u0928\u093f": 4571,
  "\u2581\u0935\u0930\u094d\u0924\u0928": 4572,
  "\u092f\u093f\u0930\u094d\u092e\u092f\u093e": 4573,
  "\u2581Answer": 4574,
  "\u2581St": 4575,
  "\u2581bow": 4576,
  "\u2581burden": 4577,
  "\u2581dog": 4578,
  "\u2581higher": 4579,
  "\u2581reproach": 4580,
  "\u2581serves": 4581,
  "\u2581\u0907\u0936\u093e\u0930\u093e": 4582,
  "\u2581\u0909\u0918\u0921": 4583,
  "\u2581\u0909\u0932\u094d\u0932\u0947\u0916\u0928\u0940\u092f": 4584,
  "\u2581\u092a\u0941\u0938\u094d\u0924\u0915\u0902": 4585,
  "\u2581\u092e\u0928\u093e\u0928\u0947": 4586,
  "ary": 4587,
  "\u0923\u0940": 4588,
  "\u0930\u093f\u0924\u094d\u092f\u093e": 4589,
  "\u2581constantly": 4590,
  "\u2581perish": 4591,
  "\u2581portion": 4592,
  "\u2581\u0915\u0943\u0924\u094d\u092f": 4593,
  "\u2581\u091a\u092f": 4594,
  "\u2581\u092f\u0939\u094b\u0936\u093e\u092b\u093e\u091f": 4595,
  "9": 4596,
  "\u0915\u0930\u093f\u0924\u093e": 4597,
  "\u093e\u0902\u0924\u0942\u0928": 4598,
  "\u2581Exodus": 4599,
  "\u2581Recall": 4600,
  "\u2581Regard": 4601,
  "\u2581authorities": 4602,
  "\u2581exactly": 4603,
  "\u2581f": 4604,
  "\u2581provisions": 4605,
  "\u2581worse": 4606,
  "\u2581\u0905\u092e\u0947\u0930\u093f\u0915\u0928": 4607,
  "\u2581\u0915\u093e\u092e\u093e\u0924": 4608,
  "\u2581\u091d\u093e\u0932\u094d\u092f\u093e\u0928\u0902\u0924\u0930": 4609,
  "\u2581\u0924\u094d\u092f\u093e\u0902\u091a\u0902": 4610,
  "\u2581\u0930\u093e\u0937\u094d\u091f\u094d\u0930\u093e\u0902\u0924": 4611,
  "\u2581\u0935\u094d\u092f\u092d\u093f\u091a\u093e\u0930": 4612,
  "\u2581\u0938\u0948\u0924\u093e\u0928\u093e\u0932\u093e": 4613,
  "\u2581\u096a\u0967": 4614,
  "\u0916\u0940": 4615,
  "\u092f\u0936": 4616,
  "\u0938\u0902\u092c\u0902\u0927\u0940": 4617,
  "\u2581Parents": 4618,
  "\u2581burn": 4619,
  "\u2581dealing": 4620,
  "\u2581indicated": 4621,
  "\u2581keeps": 4622,
  "\u2581moving": 4623,
  "\u2581risk": 4624,
  "\u2581\u091c\u093e\u0923\u0947": 4625,
  "\u2581\u0924\u0941\u092e\u091a\u094d\u092f\u093e\u0938\u093e\u0920\u0940": 4626,
  "\u2581\u0924\u094d\u092f\u093e\u0910\u0935\u091c\u0940": 4627,
  "\u2581\u0928\u0935\u0947": 4628,
  "\u2581\u092c\u094b\u0932\u0924\u093e\u0924": 4629,
  "\u2581\u0936\u0947\u0924\u093e\u0924": 4630,
  "\u0907\u0938\u094d\u0930\u093e\u090f\u0932": 4631,
  "\u2581Ahab": 4632,
  "\u2581Almighty": 4633,
  "\u2581Galilee": 4634,
  "\u2581bodies": 4635,
  "\u2581broke": 4636,
  "\u2581create": 4637,
  "\u2581date": 4638,
  "\u2581granted": 4639,
  "\u2581mistakes": 4640,
  "\u2581research": 4641,
  "\u2581spirituality": 4642,
  "\u2581\u0905\u092d\u093f\u092e\u093e\u0928": 4643,
  "\u2581\u091f\u093e\u0915\u0942\u0928": 4644,
  "\u2581\u0926\u0947\u0923\u094d\u092f\u093e\u091a\u093e": 4645,
  "\u2581\u092a\u094d\u0930\u0926\u0930\u094d\u0936": 4646,
  "\u2581\u092c\u0939\u093f\u0923\u0940": 4647,
  "la": 4648,
  "\u2581Its": 4649,
  "\u2581Lot": 4650,
  "\u2581Nathan": 4651,
  "\u2581V": 4652,
  "\u2581hundreds": 4653,
  "\u2581impossible": 4654,
  "\u2581normal": 4655,
  "\u2581occurred": 4656,
  "\u2581require": 4657,
  "\u2581views": 4658,
  "\u2581\u0905\u0936\u094d": 4659,
  "\u2581\u091c\u0947\u0935\u0923": 4660,
  "\u2581\u0924\u093e\u0930\u0947": 4661,
  "\u2581\u092a\u094d\u0930\u092e\u093e\u0923": 4662,
  "\u2581\u0935\u093f\u0937\u092f\u093e\u0935\u0930": 4663,
  "\u2581\u0938\u094b\u092a\u0902": 4664,
  "\u2581\u0938\u094d\u092a\u0937\u094d\u091f\u0940\u0915\u0930\u0923": 4665,
  "\u2581Canada": 4666,
  "\u2581cares": 4667,
  "\u2581idols": 4668,
  "\u2581witnesses": 4669,
  "\u2581\u092e\u093e\u0930\u0932\u0940": 4670,
  "\u2581\u0936\u0947\u0935\u091f": 4671,
  "\u2581England": 4672,
  "\u2581Heb": 4673,
  "\u2581London": 4674,
  "\u2581black": 4675,
  "\u2581leads": 4676,
  "\u2581treasures": 4677,
  "\u2581\u0910\u0915\u0924\u094b": 4678,
  "\u2581\u0915\u093e\u0928": 4679,
  "\u2581\u092e\u0926\u094d\u092f": 4680,
  "\u2581\u092e\u094b\u0939": 4681,
  "\u2581abroad": 4682,
  "\u2581dark": 4683,
  "\u2581designed": 4684,
  "\u2581determination": 4685,
  "\u2581empty": 4686,
  "\u2581thirty": 4687,
  "\u2581\u090f\u092b\u094d\u0930\u093e\u0908\u092e": 4688,
  "\u2581\u0924\u093e\u092c\u093e": 4689,
  "\u2581\u0924\u094d\u092f\u093e\u0902\u091a\u094d\u092f\u093e\u092a\u0948\u0915\u0940": 4690,
  "\u2581\u0925\u094b\u0921\u093e": 4691,
  "\u2581\u0928\u0917\u0930\u0947": 4692,
  "\u2581\u0935\u0921\u093f\u0932\u093e\u0902\u0928\u0940": 4693,
  "\u2581\u0935\u0932\u094d\u0939\u093e\u0902\u0921\u0923": 4694,
  "\u2581\u0935\u093f\u0927\u0940": 4695,
  "8": 4696,
  "Go": 4697,
  "\u0938\u0939": 4698,
  "\u2581Tim": 4699,
  "\u2581commission": 4700,
  "\u2581conventions": 4701,
  "\u2581\u0915\u0945\u0925\u0932\u093f\u0915": 4702,
  "\u2581\u0918\u0921\u0947\u0932": 4703,
  "\u2581\u0928\u093f\u0930\u094d\u092e\u093e\u0923\u0915\u0930\u094d\u0924\u094d\u092f\u093e": 4704,
  "\u2581\u0935\u0930\u094d\u0937\u0902": 4705,
  "\u2581forms": 4706,
  "\u2581hot": 4707,
  "\u2581shed": 4708,
  "\u2581touch": 4709,
  "\u2581\u0915\u0943\u0924\u0940": 4710,
  "\u2581\u0915\u094d\u0930\u094b\u0927": 4711,
  "\u2581\u092a\u094d\u0930\u0947\u092e\u0933\u092a\u0923\u0947": 4712,
  "\u2581\u092f\u0939\u0942\u0926\u093e\u091a\u093e": 4713,
  "\u2581August": 4714,
  "\u2581engage": 4715,
  "\u2581male": 4716,
  "\u2581\u0907\u0924\u0915\u0947\u091a": 4717,
  "\u2581\u0915\u093e\u0933\u091c\u0940\u092a\u0942\u0930\u094d\u0935\u0915": 4718,
  "\u2581\u092e\u0941\u0932\u093e\u0902\u0928\u0940": 4719,
  "\u2581\u0938\u094d\u0925\u093f\u0930": 4720,
  "il": 4721,
  "\u092a\u094d\u0930\u092e\u093e\u0923\u0947\u091a": 4722,
  "\u0948": 4723,
  "\u2581Israelite": 4724,
  "\u2581Ye": 4725,
  "\u2581clothing": 4726,
  "\u2581computer": 4727,
  "\u2581divided": 4728,
  "\u2581international": 4729,
  "\u2581\u0906\u0935\u0943\u0924\u094d\u0924\u0940": 4730,
  "\u2581\u0915\u0930\u0924\u094b\u0938": 4731,
  "\u2581\u0915\u0936\u093e\u091a\u0940": 4732,
  "\u2581\u0924\u093f\u091a\u094d\u092f\u093e\u0935\u0930": 4733,
  "\u2581\u0928\u0938\u0924\u094b": 4734,
  "\u2581\u0938\u092e\u0930\u094d\u0925\u0928": 4735,
  "\u092d\u0930": 4736,
  "\u0939\u094b": 4737,
  "\u2581Me": 4738,
  "\u2581Translation": 4739,
  "\u2581beneficial": 4740,
  "\u2581carrying": 4741,
  "\u2581charge": 4742,
  "\u2581conflict": 4743,
  "\u2581effects": 4744,
  "\u2581excellent": 4745,
  "\u2581habits": 4746,
  "\u2581likes": 4747,
  "\u2581non": 4748,
  "\u2581\u0928\u092e\u094d\u0930\u0924\u093e": 4749,
  "As": 4750,
  "Why": 4751,
  "de": 4752,
  "\u0923\u093e\u0930\u0947": 4753,
  "\u092e\u092f": 4754,
  "\u2581Asa": 4755,
  "\u2581Asia": 4756,
  "\u2581ashamed": 4757,
  "\u2581ate": 4758,
  "\u2581fearing": 4759,
  "\u2581popular": 4760,
  "\u2581\u0924\u093f\u0930\u0938\u094d\u0915\u093e\u0930": 4761,
  "\u2581\u0926\u092c\u093e\u0935": 4762,
  "\u2581\u0926\u0947\u0935\u093e\u0915\u0921\u0947": 4763,
  "\u2581\u0927\u093e\u0930\u0923": 4764,
  "\u2581\u092f\u093e\u0902\u0935\u0930": 4765,
  "3": 4766,
  "\u0945": 4767,
  "\u2581acted": 4768,
  "\u2581beauty": 4769,
  "\u2581determine": 4770,
  "\u2581global": 4771,
  "\u2581mildness": 4772,
  "\u2581privileges": 4773,
  "\u2581spoil": 4774,
  "\u2581struggle": 4775,
  "\u2581\u0917\u0943\u0939": 4776,
  "\u2581\u091c\u092a\u093e\u0928\u0940": 4777,
  "\u2581\u0926\u0947\u0923\u093e\u0930\u0947": 4778,
  "\u2581\u0928\u093e\u091a\u0947": 4779,
  "\u2581\u0928\u093f\u0918\u093e\u0932\u0947": 4780,
  "\u2581\u092e\u093f\u0933\u0924\u0940\u0932": 4781,
  "\u2581\u0935\u0930\u093e\u091a\u094d\u092f\u093e": 4782,
  "\u2581\u0935\u093e\u0938\u0942\u092a\u0923\u0947": 4783,
  "\u2581\u0936\u092e\u0941": 4784,
  "um": 4785,
  "\u0938\u0902": 4786,
  "\u2581Eden": 4787,
  "\u2581Galatians": 4788,
  "\u2581images": 4789,
  "\u2581merciful": 4790,
  "\u2581refer": 4791,
  "\u2581reveals": 4792,
  "\u2581worshipers": 4793,
  "\u2581\u0918\u093e\u0924\u0932\u093e": 4794,
  "\u2581\u0924\u094d\u092f\u093e\u0902\u092a\u0948\u0915\u0940": 4795,
  "\u2581\u092b\u093e\u092f\u0926\u0947": 4796,
  "\u2581\u0936\u094b\u0927\u0942\u0928": 4797,
  "\u0926\u093e": 4798,
  "\u2581awake": 4799,
  "\u2581dear": 4800,
  "\u2581notes": 4801,
  "\u2581treated": 4802,
  "\u2581\u0906\u0923\u0940\u0928": 4803,
  "\u2581\u0916\u093e": 4804,
  "\u2581\u0936\u093f\u0915\u0924\u094b": 4805,
  "\u2581\u0936\u093f\u092e\u094b\u0928": 4806,
  "\u2581requirements": 4807,
  "\u2581sitting": 4808,
  "\u2581\u090f\u0915\u0947": 4809,
  "\u2581\u0921\u0949\u0915\u094d\u091f\u0930": 4810,
  "\u2581\u0921\u094b\u0902\u0917\u0930\u093e": 4811,
  "\u2581\u0932\u094b\u091f": 4812,
  "\u2581\u0935\u093f\u0926\u0947\u0936\u0940": 4813,
  "\u2581\u0938\u0902\u0926\u0947\u0937\u094d\u091f\u0947": 4814,
  "All": 4815,
  "\u0902\u091f": 4816,
  "\u0938\u0941\u0927\u094d\u0926\u093e": 4817,
  "\u258128.": 4818,
  "\u2581Armies": 4819,
  "\u2581seriously": 4820,
  "\u2581\u091f\u0915\u094d\u0915\u0947": 4821,
  "\u2581\u0928\u0938\u0932\u094d\u092f\u093e\u092e\u0941\u0933\u0947": 4822,
  "\u2581\u092a\u0926\u094d\u0927\u0924": 4823,
  "\u2581\u092d\u093e\u0915\u0930": 4824,
  "\u2581\u0935\u093e\u091c\u0924\u093e": 4825,
  "\u093f\u0928": 4826,
  "\u258123:": 4827,
  "\u2581soldiers": 4828,
  "\u2581\u0906\u092e\u091a\u0902": 4829,
  "\u2581\u092a\u093e\u0939\u093e\u0924": 4830,
  "\u2581\u092a\u093e\u0939\u093f\u0932\u093e": 4831,
  "\u2581\u092e\u094b\u0932": 4832,
  "\u2581\u0935\u0930\u094d\u0937\u093e\u0902\u092a\u0942\u0930\u094d\u0935\u0940": 4833,
  "\u2581\u0935\u093f\u0927\u0935\u093e": 4834,
  "\u2581considering": 4835,
  "\u2581obtain": 4836,
  "\u2581rebellion": 4837,
  "\u2581scriptures": 4838,
  "\u2581travel": 4839,
  "\u2581united": 4840,
  "\u2581\u0906\u0936\u092f": 4841,
  "\u2581\u0915\u0933\u0924\u0947": 4842,
  "\u2581\u0924\u093e\u092c\u094d\u092f\u093e\u0924": 4843,
  "\u2581\u0924\u0941\u092e\u091a\u0902": 4844,
  "\u2581\u0926\u094b\u0918\u0947": 4845,
  "\u2581\u0935\u0927": 4846,
  "\u092a\u0930\u092e\u0947\u0936\u094d\u0935\u0930": 4847,
  "\u0939\u0936\u093e": 4848,
  "\u258129.": 4849,
  "\u2581abuse": 4850,
  "\u2581construction": 4851,
  "\u2581financial": 4852,
  "\u2581looks": 4853,
  "\u2581ministers": 4854,
  "\u2581pleasant": 4855,
  "\u2581satisfying": 4856,
  "\u2581sickness": 4857,
  "\u2581\u091c\u094d\u092f\u093e\u0902\u091a\u094d\u092f\u093e": 4858,
  "\u2581\u0930\u093e\u091c\u094d\u092f\u093e\u0935\u093f\u0937\u092f\u0940": 4859,
  "\u2581\u0935\u093f\u0938\u0930\u0942": 4860,
  "\u2581\u0938\u0902\u0924\u0941\u0937\u094d\u091f": 4861,
  "\u2581\u0938\u094d\u0935\u0930\u0942\u092a": 4862,
  "\u0935\u093f\u0930\u0941\u0927\u094d\u0926": 4863,
  "\u2581assistance": 4864,
  "\u2581desolate": 4865,
  "\u2581military": 4866,
  "\u2581providing": 4867,
  "\u2581refuse": 4868,
  "\u2581region": 4869,
  "\u2581\u091a\u0941\u0915\u0940\u091a\u094d\u092f\u093e": 4870,
  "\u2581\u0922\u0917": 4871,
  "\u2581\u0928\u093f\u0930\u094d\u0926\u094b\u0937": 4872,
  "\u2581\u0928\u094d\u092f\u0942": 4873,
  "\u2581\u092a\u093e\u0920\u093f\u0902\u092c\u093e": 4874,
  "\u2581\u092f\u0930\u093e\u092c\u093e\u092e": 4875,
  "\u2581\u0938\u092e\u091c\u0947\u0932": 4876,
  "\u2581\u0939\u0947\u0939\u0940": 4877,
  "\u0935\u0924": 4878,
  "\u2581applying": 4879,
  "\u2581attendance": 4880,
  "\u2581dry": 4881,
  "\u2581forty": 4882,
  "\u2581hidden": 4883,
  "\u2581sweet": 4884,
  "\u2581\u091c\u093e\u0923\u094d\u092f\u093e\u091a\u0940": 4885,
  "\u2581\u091c\u093e\u0939\u0940\u0930": 4886,
  "\u2581\u0925\u094b\u0921\u0947": 4887,
  "\u2581\u0927\u0928": 4888,
  "\u2581\u092a\u0930\u093f\u0923\u093e\u092e\u0915\u093e\u0930\u0915": 4889,
  "\u2581\u092c\u0928\u0942": 4890,
  "\u2581\u092d\u094b\u091c\u0928": 4891,
  "\u0913": 4892,
  "\u258131.": 4893,
  "\u2581Students": 4894,
  "\u2581background": 4895,
  "\u2581cost": 4896,
  "\u2581faces": 4897,
  "\u2581fifty": 4898,
  "\u2581foolish": 4899,
  "\u2581provision": 4900,
  "\u2581\u0906\u0932\u094d\u092f\u093e\u0935\u0930": 4901,
  "\u2581\u0915\u093f": 4902,
  "\u2581\u0918\u0930\u0947": 4903,
  "\u2581\u092a\u093e\u0920": 4904,
  "\u2581\u0935\u093e\u091a\u093e\u092f\u0932\u093e": 4905,
  "ant": 4906,
  "\u093f\u092e": 4907,
  "\u2581'?": 4908,
  "\u2581Tell": 4909,
  "\u2581ideas": 4910,
  "\u2581labor": 4911,
  "\u2581shared": 4912,
  "\u2581slaves": 4913,
  "\u2581\u0918\u0921\u0924": 4914,
  "\u2581\u091a\u093e\u0932\u0932\u093e": 4915,
  "\u2581\u0924\u0932\u0935\u093e\u0930": 4916,
  "\u2581\u0924\u093f\u0936\u093e\u0932\u0940": 4917,
  "\u2581\u0926\u094d\u0935\u093e\u0930\u0947": 4918,
  "\u2581\u0928\u0917\u0930\u0940": 4919,
  "\u2581\u092a\u094d\u0930\u093e\u0923": 4920,
  "\u2581\u0935\u0947\u0917\u0935\u0947\u0917\u0933": 4921,
  ":\"": 4922,
  "ne": 4923,
  "ry": 4924,
  "\u093e\u0930": 4925,
  "\u2581Day": 4926,
  "\u2581grace": 4927,
  "\u2581healed": 4928,
  "\u2581inhabited": 4929,
  "\u2581involve": 4930,
  "\u2581pre": 4931,
  "\u2581secure": 4932,
  "\u2581\u0905\u0917\u094d\u0928\u0940": 4933,
  "\u2581\u0924\u094d\u092f\u093e\u091a\u094d\u092f\u093e\u091c\u0935\u0933": 4934,
  "\u2581\u0932\u093e\u0915\u094d\u0937\u0923\u093f\u0915": 4935,
  "\u2581\u0935\u0947\u0917\u0933\u0940": 4936,
  "\u0902\u0921": 4937,
  "\u0928\u094d\u0938": 4938,
  "\u2581\"%": 4939,
  "\u2581Mosaic": 4940,
  "\u2581National": 4941,
  "\u2581Nehemiah": 4942,
  "\u2581continually": 4943,
  "\u2581familiar": 4944,
  "\u2581fornication": 4945,
  "\u2581hide": 4946,
  "\u2581reference": 4947,
  "\u2581remaining": 4948,
  "\u2581stress": 4949,
  "\u2581watching": 4950,
  "\u2581\u0915\u093e\u0922\u0942": 4951,
  "\u2581\u0916\u093e\u092f\u0932\u093e": 4952,
  "\u2581\u092e\u0926\u0924\u0940\u091a\u0940": 4953,
  "\u2581\u092e\u093e\u0924\u0940": 4954,
  "\u2581\u0930\u093e\u0939\u0923\u093e\u0931\u094d\u092f\u093e": 4955,
  "am": 4956,
  "\u0915\u0940": 4957,
  "\u0923\u0902": 4958,
  "\u092e\u0928": 4959,
  "\u2581March": 4960,
  "\u2581indicates": 4961,
  "\u2581songs": 4962,
  "\u2581\u0906\u0922\u0933\u0932\u0947": 4963,
  "\u2581\u0906\u092a\u0932\u094d\u092f\u093e\u0915\u0921\u0947": 4964,
  "\u2581\u0926\u0947\u0923\u093e\u0930\u093e": 4965,
  "\u2581\u0928\u0948\u0938\u0930\u094d\u0917\u093f\u0915": 4966,
  "\u2581\u092c\u094b\u0932\u0932\u0947": 4967,
  "\u2581\u092d\u093f\u0902\u0924\u0940": 4968,
  "\u2581\u092e\u093f\u0933\u0935\u0923\u094d\u092f\u093e\u0938\u093e\u0920\u0940": 4969,
  "\u2581\u092e\u094d\u0939\u0923": 4970,
  "\u2581\u092f\u093e\u0924\u0942\u0928": 4971,
  "\u2581\u0938\u092e\u091c\u093e\u0935\u0942\u0928": 4972,
  "ian": 4973,
  "\u091c\u093e": 4974,
  "\u25811914": 4975,
  "\u2581Jehoshaphat": 4976,
  "\u2581bare": 4977,
  "\u2581belief": 4978,
  "\u2581belongs": 4979,
  "\u2581cometh": 4980,
  "\u2581slow": 4981,
  "\u2581yesterday": 4982,
  "\u2581\u0905\u092c\u0936\u093e\u0932\u094b\u092e": 4983,
  "\u2581\u0907\u091a\u094d\u091b\u0947\u092a\u094d\u0930\u092e\u093e\u0923\u0947": 4984,
  "\u2581\u0915\u0930\u0923\u093e\u0930\u0940": 4985,
  "\u2581\u0915\u0930\u0923\u094d\u092f\u093e\u091a\u0902": 4986,
  "\u2581\u092a\u0915\u094d\u0937\u0940": 4987,
  "\u2581\u0932\u094b\u0915\u0938\u092e\u0941\u0926\u093e\u092f": 4988,
  "\u2581\u0936\u093e\u0938\u094d\u0924\u094d\u0930\u0935\u091a\u0928\u093e\u0902": 4989,
  "\u2581\u0936\u093f\u0938\u094d\u0924": 4990,
  "\u2581\u0938\u0928": 4991,
  "\u2581\u0938\u093e\u0902\u0917\u093f\u0924\u0932\u0947\u0932\u094d\u092f\u093e": 4992,
  "6": 4993,
  "Keep": 4994,
  "\u091f\u0940": 4995,
  "\u2581Pet": 4996,
  "\u2581Whatever": 4997,
  "\u2581ended": 4998,
  "\u2581judgments": 4999,
  "\u2581organized": 5000,
  "\u2581remembered": 5001,
  "\u2581\u0907\u091a\u094d\u091b\u093f\u0924\u094b": 5002,
  "\u2581\u091f\u093e\u0915\u0923\u094d\u092f\u093e": 5003,
  "\u2581\u0932": 5004,
  "\u2581\u0932\u093f\u0939\u0942\u0928": 5005,
  "0": 5006,
  "They": 5007,
  "im": 5008,
  "na": 5009,
  "\u258124,": 5010,
  "\u2581curse": 5011,
  "\u2581establish": 5012,
  "\u2581fourth": 5013,
  "\u2581instructions": 5014,
  "\u2581sang": 5015,
  "\u2581severe": 5016,
  "\u2581store": 5017,
  "\u2581successfully": 5018,
  "\u2581\u0935\u093e\u0933\u0935\u0902\u091f\u093e\u0924": 5019,
  "\u2581\u0935\u094d\u092f\u0930\u094d\u0925": 5020,
  "\u2581\u0938\u094d\u0925\u093e\u0928\u093f\u0915": 5021,
  "\u0938\u093e\u0930\u0916\u094d\u092f\u093e": 5022,
  "\u2581Abel": 5023,
  "\u2581Enoch": 5024,
  "\u2581KDE": 5025,
  "\u2581Second": 5026,
  "\u2581across": 5027,
  "\u2581add": 5028,
  "\u2581buried": 5029,
  "\u2581directly": 5030,
  "\u2581facts": 5031,
  "\u2581garments": 5032,
  "\u2581milk": 5033,
  "\u2581occasions": 5034,
  "\u2581rules": 5035,
  "\u2581satisfied": 5036,
  "\u2581\u0906\u0938\u093e": 5037,
  "\u2581\u0926\u0943\u0936\u094d": 5038,
  "\u2581\u0926\u094d\u092f\u093e\u092f\u091a\u0947": 5039,
  "\u2581\u0926\u094d\u092f\u093e\u0932": 5040,
  "\u2581\u0927\u0942\u092a": 5041,
  "\u2581\u092a\u094d\u0930\u0917\u091f": 5042,
  "\u2581\u092a\u094d\u0930\u0947": 5043,
  "\u2581\u0935\u0930\u094d\u0937\u093e\u0902\u0928\u0902\u0924\u0930": 5044,
  "\u2581\u0935\u093e\u0938\u093e\u0924": 5045,
  "\u2581\u0935\u0948\u092d\u0935": 5046,
  "\u2581\u0938\u092e\u091c\u093e": 5047,
  "Laughter": 5048,
  "\u0931\u094d\u092f\u093e": 5049,
  "\u2581Jeroboam": 5050,
  "\u2581Never": 5051,
  "\u2581Sad": 5052,
  "\u2581_": 5053,
  "\u2581armies": 5054,
  "\u2581feels": 5055,
  "\u2581happens": 5056,
  "\u2581render": 5057,
  "\u2581statutes": 5058,
  "\u2581survive": 5059,
  "\u2581vast": 5060,
  "\u2581\u092a\u0930\u094d\u0935\u0924\u093e\u0935\u0930": 5061,
  "\u2581\u092c\u0918": 5062,
  "\u2581\u092d\u0915\u094d": 5063,
  "\u2581\u0935\u093e\u0938\u093e\u0928\u0947": 5064,
  "\u2581\u0936\u093f\u0915\u0935\u0923\u0940": 5065,
  "\u0915\u0947": 5066,
  "\u0924\u0947\u0928\u0947": 5067,
  "\u092a\u0930\u093f\u091a\u094d\u091b\u0947\u0926": 5068,
  "\u2581January": 5069,
  "\u2581July": 5070,
  "\u2581coffee": 5071,
  "\u2581details": 5072,
  "\u2581impressed": 5073,
  "\u2581superior": 5074,
  "\u2581task": 5075,
  "\u2581wheat": 5076,
  "\u2581\u0906\u0935\u094d\u0939\u093e\u0928": 5077,
  "\u2581\u0917\u0948\u0930": 5078,
  "\u2581\u0924\u0947\u0935\u094d\u0939\u093e\u092a\u093e\u0938\u0942\u0928": 5079,
  "\u2581\u092a\u094d\u0930\u0938\u093f\u0926\u094d\u0927": 5080,
  "\u2581\u092c\u0928\u094d\u092f\u093e\u092e\u0940\u0928": 5081,
  "\u2581\u092c\u0930\u0902": 5082,
  "\u2581\u092e\u0930\u0940\u092f\u093e": 5083,
  "\u2581\u092f\u094b\u0939\u093e\u0928\u093e\u0928\u0947": 5084,
  "\u2581\u0939\u093e\u0924\u092d\u093e\u0930": 5085,
  "sh": 5086,
  "\u092a\u0942\u0930\u094d\u0935\u0915": 5087,
  "\u2581June": 5088,
  "\u2581belong": 5089,
  "\u2581chariots": 5090,
  "\u2581courageous": 5091,
  "\u2581honest": 5092,
  "\u2581inherit": 5093,
  "\u2581innocent": 5094,
  "\u2581sell": 5095,
  "\u2581\u0905\u0902\u0924\u0903\u0915\u0930\u0923": 5096,
  "\u2581\u0906\u0935\u0947\u0936\u0940": 5097,
  "\u2581\u0918\u0947\u0924\u0932\u0947\u0932\u094d\u092f\u093e": 5098,
  "\u2581\u0926\u094d\u092f\u093e\u0935\u093e": 5099,
  "\u2581\u092e\u0947\u0902\u0922\u0930\u0947": 5100,
  "\u2581\u0930\u0942\u0925": 5101,
  "gat": 5102,
  "\u2581describe": 5103,
  "\u2581grain": 5104,
  "\u2581reaction": 5105,
  "\u2581\u0905\u091f\u0915": 5106,
  "\u2581\u0906\u0926\u0947\u0936": 5107,
  "\u2581\u0918\u0947\u0924\u0932\u0902": 5108,
  "\u2581\u091c\u093f\u0935\u0947": 5109,
  "\u2581\u091f\u093e\u0915\u093e": 5110,
  "\u2581\u0920\u0947\u0935\u0923\u094d\u092f\u093e\u0938\u093e\u0920\u0940": 5111,
  "\u2581\u0926\u093e\u0935\u093f\u0926\u093e\u0932\u093e": 5112,
  "\u2581\u092c\u094b\u0932\u093e\u092f\u0932\u093e": 5113,
  "ol": 5114,
  "one": 5115,
  "\u093e\u0902\u091a\u0902": 5116,
  "\u2581release": 5117,
  "\u2581season": 5118,
  "\u2581\u0906\u0935\u0921\u0924\u094b": 5119,
  "\u2581\u090f\u0932": 5120,
  "\u2581\u0920\u0930\u0932\u093e": 5121,
  "\u2581\u0927\u0921\u0947": 5122,
  "\u2581\u0928\u093f\u092f\u092e\u0936\u093e\u0938\u094d\u0924\u094d\u0930\u093e\u0924": 5123,
  "\u2581\u092e\u0941\u0915\u094d\u0924": 5124,
  "\u2581\u0932\u094b\u0915\u093e\u0902\u0928\u094b": 5125,
  "ad": 5126,
  "ist": 5127,
  "\u2581BIBLE": 5128,
  "\u2581Esau": 5129,
  "\u2581depart": 5130,
  "\u2581dress": 5131,
  "\u2581judges": 5132,
  "\u2581persecuted": 5133,
  "\u2581pointed": 5134,
  "\u2581running": 5135,
  "\u2581selfish": 5136,
  "\u2581standard": 5137,
  "\u2581\u091c\u0939\u093e\u091c": 5138,
  "\u2581\u092e\u0936\u0940\u0939\u093e": 5139,
  "\u2581\u0932\u093e\u0917\u0924\u0940\u0932": 5140,
  "\u2581\u0936\u093f\u0915\u0932\u094b": 5141,
  "\u2581\u0936\u094b\u092e\u0930\u094b\u0928": 5142,
  "Jesus": 5143,
  "\u090f\u0932": 5144,
  "\u2581Indian": 5145,
  "\u2581Passover": 5146,
  "\u2581moon": 5147,
  "\u2581released": 5148,
  "\u2581\u0905\u092a\u092e\u093e\u0928": 5149,
  "\u2581\u0906\u0908\u0932\u093e": 5150,
  "\u2581\u0915\u0949\u092b\u0940": 5151,
  "\u2581\u092a\u0941\u0922\u093e\u0915\u093e\u0930": 5152,
  "7": 5153,
  "\u2581Cain": 5154,
  "\u2581December": 5155,
  "\u2581deaf": 5156,
  "\u2581win": 5157,
  "\u2581\u090f\u092e": 5158,
  "\u2581\u0915\u093e\u0930\u094d\u092f\u0947": 5159,
  "\u2581\u0916\u094b\u0932\u0940": 5160,
  "\u2581\u0924\u093f\u0924\u0915\u0947": 5161,
  "\u2581\u0924\u094d\u092f\u093e\u091a\u094d\u092f\u093e\u0938\u093e\u0920\u0940": 5162,
  "\u2581\u092a\u093e\u0923\u094d\u092f\u093e\u0924": 5163,
  "\u2581\u092a\u0943\u0925\u094d\u0935\u0940\u091a\u094d\u092f\u093e": 5164,
  "\u2581\u25c6": 5165,
  "\u0935\u0930\u0942\u0928": 5166,
  "\u2581Hannah": 5167,
  "\u2581captain": 5168,
  "\u2581deliverance": 5169,
  "\u2581differ": 5170,
  "\u2581quoted": 5171,
  "\u2581\u0915\u0936\u093e\u0935\u0930\u0942\u0928": 5172,
  "\u2581\u0918\u0947\u0923\u094d\u092f\u093e\u0924": 5173,
  "\u2581\u091a\u0941\u0915\u0940\u091a\u0947": 5174,
  "\u2581\u0926\u093e\u0924": 5175,
  "\u2581\u092a\u094d\u0930\u0915\u093e\u0936\u0928": 5176,
  "\u2581\u092e\u0947\u0939\u0928\u0924": 5177,
  "gt": 5178,
  "\u0915\u094d": 5179,
  "\u2581(_": 5180,
  "\u2581Master": 5181,
  "\u2581Sami": 5182,
  "\u2581bus": 5183,
  "\u2581grief": 5184,
  "\u2581miracles": 5185,
  "\u2581project": 5186,
  "\u2581proof": 5187,
  "\u2581royal": 5188,
  "\u2581\u0915\u0943\u0924\u091c\u094d\u091e": 5189,
  "\u2581\u0917\u094b\u0937\u094d\u091f\u0940\u091a\u0940": 5190,
  "\u2581\u0924\u0941\u092e\u094d\u0939\u0940\u0939\u0940": 5191,
  "\u2581\u0938\u094d\u0935\u0924\u0903\u091a\u093e": 5192,
  "\u2581\u0939\u093e\u0915": 5193,
  "\u2581Kings": 5194,
  "\u2581Readers": 5195,
  "\u2581appreciated": 5196,
  "\u2581comforting": 5197,
  "\u2581healthy": 5198,
  "\u2581hid": 5199,
  "\u2581reminded": 5200,
  "\u2581rulership": 5201,
  "\u2581strangers": 5202,
  "\u2581testimony": 5203,
  "\u2581till": 5204,
  "\u2581walls": 5205,
  "\u2581\u0905\u0928\u0941\u092f\u093e\u092f\u0940": 5206,
  "\u2581\u0906\u092a\u0932\u094d\u092f\u093e\u092a\u0948\u0915\u0940": 5207,
  "\u2581\u0915\u094d\u0930\u0942\u0930": 5208,
  "\u2581\u091f\u0940\u0935\u094d\u0939\u0940": 5209,
  "\u2581\u092e\u0941\u0932\u093e\u0902\u091a\u0947": 5210,
  "\u2581\u092f\u0941\u0927\u094d\u0926": 5211,
  "\u2581\u0935\u0947\u0917\u0933\u093e": 5212,
  "\u2581\u0936\u093e\u0938\u094d\u0924\u094d\u0930": 5213,
  "\u2581\u0938\u0941\u0930\u0941": 5214,
  "\u2581\u0967\u0967\u096f": 5215,
  "\u2581British": 5216,
  "\u2581Sarah": 5217,
  "\u2581aspect": 5218,
  "\u2581c": 5219,
  "\u2581significant": 5220,
  "\u2581turning": 5221,
  "\u2581\u090f\u0938": 5222,
  "\u2581\u0915\u0925\u093e": 5223,
  "\u2581\u092c\u0926\u0932\u0923\u094d\u092f\u093e": 5224,
  "\u2581\u092f\u0930\u0941\u0936\u0932\u0947\u092e\u0932\u093e": 5225,
  "\u2581\u0930\u094b\u091c": 5226,
  "\u2581\u0938\u093e\u092a": 5227,
  "\u2581City": 5228,
  "\u2581Dr": 5229,
  "\u2581Sometimes": 5230,
  "\u2581challenging": 5231,
  "\u2581played": 5232,
  "\u2581\u0905\u0927\u093f\u0935\u0947\u0936\u0928": 5233,
  "\u2581\u0909\u092a\u0926\u0947\u0936\u0915": 5234,
  "\u2581\u0920\u093e\u092f\u0940": 5235,
  "\u2581\u0924\u094d\u092f\u093e\u0902\u0938": 5236,
  "\u2581\u0938\u0941\u0927\u093e\u0930\u0923\u093e": 5237,
  "\u2581\u096a\u096e": 5238,
  "\u093f\u0932": 5239,
  "\u258133.": 5240,
  "\u2581Blur": 5241,
  "\u2581Chinese": 5242,
  "\u2581Him": 5243,
  "\u2581Mother": 5244,
  "\u2581News": 5245,
  "\u2581grasp": 5246,
  "\u2581recently": 5247,
  "\u2581repentance": 5248,
  "\u2581sanctuary": 5249,
  "\u2581suddenly": 5250,
  "\u2581\u0905\u0928\u0902\u0924\u0915\u093e\u0933": 5251,
  "\u2581\u0926\u0941\u0938\u0930\u0940\u0915\u0921\u0947": 5252,
  "\u2581\u092c\u094b\u0932\u0942\u0928": 5253,
  "\u2581\u092e\u0924\u092d\u0947\u0926": 5254,
  "\u2581\u092e\u0943\u0924\u094d\u092f\u0942\u0928\u0902\u0924\u0930": 5255,
  "\u2581\u092e\u0947\u0932\u093e": 5256,
  "\u2581\u092f\u0939\u0941\u0926\u093e": 5257,
  "\u2581\u0935\u091c\u0928": 5258,
  "\u0921\u0947": 5259,
  "\u2581Flood": 5260,
  "\u2581Out": 5261,
  "\u2581Simon": 5262,
  "\u2581concerns": 5263,
  "\u2581finding": 5264,
  "\u2581minutes": 5265,
  "\u2581population": 5266,
  "\u2581series": 5267,
  "\u2581stake": 5268,
  "\u2581writes": 5269,
  "\u2581\u0906\u0936\u094d\u0930\u092f": 5270,
  "\u2581\u0918\u093e\u0924\u0932\u0947": 5271,
  "\u2581\u0926\u093f\u0932\u0947\u0932\u0902": 5272,
  "\u2581\u092e\u093f\u0933\u0935\u0942": 5273,
  "\u2581\u0936\u092c\u094d\u092c\u093e\u0925": 5274,
  "\u2581\u0936\u093f\u0915\u0942\u0928": 5275,
  "\u2581\u0938\u093e\u0925": 5276,
  "\u092f\u093e\u091a\u094d\u092f\u093e": 5277,
  "\u093e\u0935\u093f\u0930\u0941\u0926\u094d\u0927": 5278,
  "\u258123]": 5279,
  "\u2581Name": 5280,
  "\u2581Wherefore": 5281,
  "\u2581abundant": 5282,
  "\u2581acknowledge": 5283,
  "\u2581couples": 5284,
  "\u2581fields": 5285,
  "\u2581generations": 5286,
  "\u2581motivated": 5287,
  "\u2581qualified": 5288,
  "\u2581rely": 5289,
  "\u2581size": 5290,
  "\u2581skin": 5291,
  "\u2581\u0906\u0936\u0940\u0930\u094d\u0935\u093e\u0926\u093f\u0924": 5292,
  "\u2581\u0909\u092a\u093e\u092f": 5293,
  "\u2581\u0915\u0941\u091f\u0941\u0902\u092c\u093e\u0932\u093e": 5294,
  "\u2581\u0920\u0930\u0935\u0932\u0902": 5295,
  "\u2581\u0928\u0941\u0915\u0938\u093e\u0928": 5296,
  "\u2581\u092a\u0941\u0930\u0947\u0938\u0947": 5297,
  "\u0930\u0947": 5298,
  "\u0969": 5299,
  "\u2581Promised": 5300,
  "\u2581eaten": 5301,
  "\u2581identify": 5302,
  "\u2581kingdoms": 5303,
  "\u2581national": 5304,
  "\u2581\u0916\u094b\u0932": 5305,
  "\u2581\u091c\u092e\u093f\u0928\u0940\u0924": 5306,
  "\u2581\u091c\u093e\u0917\u0947": 5307,
  "\u2581\u0924\u0941\u0915\u0921\u0947": 5308,
  "\u2581\u0924\u094d\u092f\u093e\u0938": 5309,
  "\u2581\u092c\u0928\u0935\u0932\u0947": 5310,
  "\u2581\u0935\u0938\u094d\u0924\u094d\u0930\u0947": 5311,
  "\u2581\u0936\u0942\u0930": 5312,
  "Who": 5313,
  "\u0936\u0947": 5314,
  "\u2581Everyone": 5315,
  "\u2581Internet": 5316,
  "\u2581anxious": 5317,
  "\u2581marvelous": 5318,
  "\u2581window": 5319,
  "\u2581yoke": 5320,
  "\u2581\u0917\u094b\u0921": 5321,
  "\u2581\u0917\u094b\u0937\u094d\u091f\u0940\u0902\u0928\u093e": 5322,
  "\u2581\u0924\u0947\u0939\u0940": 5323,
  "\u2581\u0939\u094b\u0923\u094d\u092f\u093e\u0938": 5324,
  "\u0915\u094b": 5325,
  "\u0935\u094d\u0939": 5326,
  "\u0966\u0966": 5327,
  "\u2581TV": 5328,
  "\u2581district": 5329,
  "\u2581exists": 5330,
  "\u2581focused": 5331,
  "\u2581forced": 5332,
  "\u2581model": 5333,
  "\u2581possessions": 5334,
  "\u2581\u0906\u0923\u0942": 5335,
  "\u2581\u0906\u092a\u0932\u094d\u092f\u093e\u0932\u093e\u0939\u0940": 5336,
  "\u2581\u091c\u0941\u0928\u094d\u092f\u093e": 5337,
  "\u2581\u0928\u0938\u0924\u093e\u0924": 5338,
  "\u2581\u092c\u093e\u092c\u093e": 5339,
  "\u2581\u0930\u093e\u091c\u0927\u093e\u0928\u0940": 5340,
  "\u2581\u0932\u093e\u0916": 5341,
  "\u2581\u0938\u092d\u093e\u0917\u0943\u0939": 5342,
  "No": 5343,
  "\u2581Pentecost": 5344,
  "\u2581bitter": 5345,
  "\u2581communicate": 5346,
  "\u2581content": 5347,
  "\u2581famous": 5348,
  "\u2581injustice": 5349,
  "\u2581punishment": 5350,
  "\u2581strange": 5351,
  "\u2581verses": 5352,
  "\u2581waste": 5353,
  "\u2581\u0905\u092f\u094b\u0917\u094d\u092f": 5354,
  "\u2581\u0906\u0930": 5355,
  "\u2581\u0908": 5356,
  "\u2581\u092a\u0936\u0942": 5357,
  "\u2581\u0935\u093e\u091f\u0923\u093e\u0930": 5358,
  "\u2581\u0938\u0902\u0924\u0924\u0940": 5359,
  "go": 5360,
  "\u2581Brazil": 5361,
  "\u2581Ministry": 5362,
  "\u2581Tract": 5363,
  "\u2581center": 5364,
  "\u2581critical": 5365,
  "\u2581extend": 5366,
  "\u2581glorify": 5367,
  "\u2581gratitude": 5368,
  "\u2581ruin": 5369,
  "\u2581street": 5370,
  "\u2581\u0906\u0928\u0902\u0926\u0926\u093e\u092f\u0915": 5371,
  "\u2581\u0909\u092a\u093e\u0938\u0915": 5372,
  "\u2581\u0915\u094b\u091f\u0940": 5373,
  "\u2581\u0924\u0940\u091a\u0947": 5374,
  "\u2581\u0924\u0941\u092e\u094d\u0939\u093e\u0932\u093e\u0939\u0940": 5375,
  "\u2581\u092a\u094d\u0930\u092d\u0942\u091a\u094d\u092f\u093e": 5376,
  "\u2581\u092c\u0947\u0925": 5377,
  "\u2581\u0932\u094b\u0915\u093e\u0902\u092c\u0926\u094d\u0926\u0932": 5378,
  "\u2581\u0932\u094b\u092d": 5379,
  "\u2581\u0938\u093f\u092f\u094b\u0928": 5380,
  "\u2581\u0938\u094d\u0935\u0930\u094d\u0917\u093e\u0924\u0942\u0928": 5381,
  "ling": 5382,
  "\u093e\u0902\u092a\u094d\u0930\u092e\u093e\u0923\u0947": 5383,
  "\u2581career": 5384,
  "\u2581newspaper": 5385,
  "\u2581represent": 5386,
  "\u2581\u091f": 5387,
  "\u2581\u092a\u0921\u0942\u0928": 5388,
  "\u2581\u092a\u0941\u0930\u0947": 5389,
  "\u2581\u092c\u093e\u0917\u0947\u0924": 5390,
  "\u2581\u0930\u094b\u092e\u0928": 5391,
  "\u2581\u0935\u093f\u091a\u093e\u0930\u0932\u0902": 5392,
  "\u2581\u0935\u0947\u0933\u0947": 5393,
  "\u2581\u0935\u094d\u092f\u093e\u0935\u0939\u093e\u0930\u093f\u0915": 5394,
  "\u2581\u0969\u096f": 5395,
  "our": 5396,
  "will": 5397,
  "\u092e\u093e\u0917\u0947": 5398,
  "\u0930\u0940\u0924\u094d\u092f\u093e": 5399,
  "\u258145": 5400,
  "\u2581Blessed": 5401,
  "\u2581Messianic": 5402,
  "\u2581University": 5403,
  "\u2581compared": 5404,
  "\u2581distance": 5405,
  "\u2581hospital": 5406,
  "\u2581mention": 5407,
  "\u2581quiet": 5408,
  "\u2581reaching": 5409,
  "\u2581useful": 5410,
  "\u2581\u0909\u092a": 5411,
  "\u2581\u0918\u0947\u0924\u0932\u094d\u092f\u093e": 5412,
  "\u2581\u0921\u094b\u0915\u094d\u092f\u093e\u0935\u0930": 5413,
  "\u2581\u0926\u093e\u0916\u0935\u093e": 5414,
  "\u2581\u0926\u0947\u0923\u094d\u092f\u093e\u0915\u0930\u0924\u093e": 5415,
  "\u2581\u0928\u0947\u0924\u0947": 5416,
  "\u2581\u092a\u0924\u094d\u0930\u093e\u0924": 5417,
  "\u2581\u092a\u094d\u0930\u0925\u093e": 5418,
  "\u2581\u0935\u093f\u091a\u093e\u0930\u093e": 5419,
  "V": 5420,
  "ha": 5421,
  "\u093f\u0932\u0947": 5422,
  "\u258121,": 5423,
  "\u2581Rev": 5424,
  "\u2581allows": 5425,
  "\u2581assurance": 5426,
  "\u2581beside": 5427,
  "\u2581motivate": 5428,
  "\u2581planet": 5429,
  "\u2581restore": 5430,
  "\u2581safe": 5431,
  "\u2581\u0905\u0938\u0902\u0916\u094d\u092f": 5432,
  "\u2581\u0906\u0923\u0932\u0940": 5433,
  "\u2581\u0918\u0947\u0908\u0932": 5434,
  "\u2581\u091c\u093e\u0923\u094d\u092f\u093e\u0938": 5435,
  "\u2581\u0924\u093e": 5436,
  "\u2581\u0926\u0947\u0939": 5437,
  "\u2581\u092b": 5438,
  "\u2581\u0935\u093f": 5439,
  "\u2581\u0938\u0941\u0926\u094d\u0927\u093e": 5440,
  "\u092a\u0930": 5441,
  "\u2581corrupt": 5442,
  "\u2581discouraged": 5443,
  "\u2581entitled": 5444,
  "\u2581mourning": 5445,
  "\u2581\u0905\u0935\u093f\u0935\u093e\u0939\u093f\u0924": 5446,
  "\u2581\u0905\u0938\u0932\u0902": 5447,
  "\u2581\u0906\u0939\u093e": 5448,
  "\u2581\u0918\u0947\u0923\u093e\u0931\u094d": 5449,
  "\u2581\u091c\u094d\u092f\u093e\u0924": 5450,
  "\u2581\u091f\u093e\u0933\u0942": 5451,
  "\u2581\u0927\u093e\u0935": 5452,
  "\u2581\u092a\u091f": 5453,
  "\u2581\u0930\u0921\u0924": 5454,
  "\u2581\u0930\u093e\u0937\u094d\u091f\u094d\u0930\u093e\u0902\u0928\u093e": 5455,
  "\u2581\u0936\u093e\u0902\u0924\u093f": 5456,
  "\u2581\u0938\u094b\u092c\u0924\u0940": 5457,
  "\u0923\u094d\u092f\u093e\u091a\u0940": 5458,
  "\u0928\u093f": 5459,
  "\u0938\u094d\u091f": 5460,
  "\u2581Nebuchadnezzar": 5461,
  "\u2581nearby": 5462,
  "\u2581vow": 5463,
  "\u2581weight": 5464,
  "\u2581\u0905\u0926\u094d\u092f\u093e\u092a": 5465,
  "\u2581\u091f\u093e\u0915": 5466,
  "\u2581\u092a\u0942\u0930\u094d\u0923\u0924\u093e": 5467,
  "\u2581\u092a\u094d\u0930\u092e\u093e\u0923\u0947": 5468,
  "\u2581\u092a\u094d\u0930\u0935\u093e\u0938\u0940": 5469,
  "\u2581\u0932\u093f\u0939\u093f\u0932\u0947\u0932\u094d\u092f\u093e": 5470,
  "OR": 5471,
  "\u092a\u091f": 5472,
  "\u2581Beth": 5473,
  "\u2581Canaan": 5474,
  "\u2581Close": 5475,
  "\u2581Learn": 5476,
  "\u2581highly": 5477,
  "\u2581\u0906\u091c\u092a\u0930\u094d\u092f\u0902\u0924": 5478,
  "\u2581\u0906\u091c\u094d\u091e\u093e\u0902\u091a\u0947": 5479,
  "\u2581\u0909\u092a\u092f\u094b\u0917\u0940": 5480,
  "\u2581\u090f\u0935\u0922\u0947": 5481,
  "\u2581\u0915\u0930\u093e\u092f\u091a\u0902": 5482,
  "\u2581\u092a\u093e\u0939\u0923\u093e\u0930": 5483,
  "\u2581\u092c\u094b\u0927": 5484,
  "\u2581\u092e\u093e\u0902\u0921\u0932\u0947": 5485,
  "\u2581\u0932\u094b\u0915\u093e\u0902\u092c\u0930\u094b\u092c\u0930": 5486,
  "\u2581\u0935\u091a\u0928\u093e\u091a\u093e": 5487,
  "\u2581\u0938\u093e\u0939\u093e\u092f\u094d\u092f\u093e\u0928\u0947": 5488,
  "\u2581\u096c\u0966": 5489,
  "ish": 5490,
  "\u093f\u092f\u093e": 5491,
  "\u2581History": 5492,
  "\u2581Neither": 5493,
  "\u2581concluded": 5494,
  "\u2581indefinite": 5495,
  "\u2581numerous": 5496,
  "\u2581paragraph": 5497,
  "\u2581pioneering": 5498,
  "\u2581playing": 5499,
  "\u2581potential": 5500,
  "\u2581strengthening": 5501,
  "\u2581supply": 5502,
  "\u2581unless": 5503,
  "\u2581villages": 5504,
  "\u2581\u0917\u093f\u0932\u093f\u092f\u0921": 5505,
  "\u2581\u091c\u093e\u092f\u091a\u0902": 5506,
  "\u2581\u0924\u094d\u092f\u093e\u092a\u0947\u0915\u094d\u0937\u093e": 5507,
  "\u2581\u092e\u0938\u094d\u0924\u0915": 5508,
  "\u2581\u092e\u0941\u0932\u093e\u0902\u091a\u0940": 5509,
  "\u2581\u092e\u0942\u0932\u092d\u0942\u0924": 5510,
  "\u2581\u0935\u093f\u0930\u094b\u0927\u093e\u0924": 5511,
  "age": 5512,
  "ww": 5513,
  "\u093e\u0935\u0940": 5514,
  "\u093e\u0938\u094b\u092c\u0924": 5515,
  "\u093f\u092f\u0928": 5516,
  "\u2581Jehu": 5517,
  "\u2581Peace": 5518,
  "\u2581methods": 5519,
  "\u2581plans": 5520,
  "\u2581rendered": 5521,
  "\u2581\u0906\u0924\u094d\u092e\u094d\u092f\u093e": 5522,
  "\u2581\u090f\u0915\u092e\u0947\u0915\u093e\u0902\u0935\u0930": 5523,
  "\u2581\u0915\u093f\u0902\u092c\u0939\u0941\u0928\u093e": 5524,
  "\u2581\u0928\u093e\u0924\u0947\u0935\u093e\u0908\u0915": 5525,
  "\u2581\u092a\u093e\u092a\u093e\u0902\u091a\u0940": 5526,
  "\u2581\u092a\u0941\u0924\u094d\u0930\u093e\u0932\u093e": 5527,
  "\u2581\u092d\u092f\u093e\u0928\u0915": 5528,
  "\u2581\u092e\u093e\u0938\u0947": 5529,
  "\u2581\u0935\u093f\u0936\u0947\u0937\u093e\u0927\u093f\u0915\u093e\u0930": 5530,
  "\u2581\u0935\u093f\u0938\u0902\u092c": 5531,
  "\u2581\u0938\u0915\u093e\u0930\u093e\u0924\u094d\u092e\u0915": 5532,
  "\u2581\u0939\u094b\u0935\u094b": 5533,
  "\u0902\u092e\u0941\u0933\u0947": 5534,
  "\u093e\u0902\u0928\u094b": 5535,
  "\u093e\u0928\u0902\u0924\u0930": 5536,
  "\u2581[\"": 5537,
  "\u2581additional": 5538,
  "\u2581begotten": 5539,
  "\u2581causing": 5540,
  "\u2581hated": 5541,
  "\u2581invisible": 5542,
  "\u2581total": 5543,
  "\u2581\u0906\u091c\u094d\u091e\u093e\u0927\u093e\u0930\u0915": 5544,
  "\u2581\u0918\u0947\u0923\u093e\u0930": 5545,
  "\u2581\u0918\u0947\u0924\u0940\u0932": 5546,
  "\u2581\u0926\u094b\u0918\u0947\u0939\u0940": 5547,
  "\u2581\u092a\u0915\u094d\u0937": 5548,
  "\u2581\u092c\u093e\u0902\u0927\u0935\u093e\u0902\u0928\u0940": 5549,
  "\u2581\u092c\u093e\u0923": 5550,
  "\u2581\u0935\u093e\u0917\u0932\u093e": 5551,
  "\u2581\u0938\u092a\u094d\u091f\u0947\u0902\u092c\u0930": 5552,
  "\u092e\u093e\u0928": 5553,
  "\u2581References": 5554,
  "\u2581Sovereign": 5555,
  "\u2581State": 5556,
  "\u2581calamity": 5557,
  "\u2581choices": 5558,
  "\u2581demonstrated": 5559,
  "\u2581divorce": 5560,
  "\u2581emotions": 5561,
  "\u2581fleshly": 5562,
  "\u2581pursuing": 5563,
  "\u2581relations": 5564,
  "\u2581ungodly": 5565,
  "\u2581\u0917\u093f\u0926\u094b\u0928": 5566,
  "\u2581\u0924\u0923\u093e\u0935": 5567,
  "\u2581\u0925\u0947\u091f": 5568,
  "\u2581\u092e\u093e\u0930\u094d\u091a": 5569,
  "\u2581\u0932\u093f\u0939\u093f\u0932\u0902": 5570,
  "\u2581\u0935\u093e\u0917\u0924": 5571,
  "\u2581\u0936\u092c\u094d\u0926\u093e\u091a\u093e": 5572,
  "\u2581\u0938\u094d\u0935\u0930\u094d\u0917\u093e": 5573,
  "but": 5574,
  "\u0932\u0947\u0932\u0947": 5575,
  "\u2581Dan": 5576,
  "\u2581apparently": 5577,
  "\u2581asleep": 5578,
  "\u2581restored": 5579,
  "\u2581supported": 5580,
  "\u2581tax": 5581,
  "\u2581\u0905\u0930\u094d\u0925\u092a\u0942\u0930\u094d\u0923": 5582,
  "\u2581\u0915\u0933\u0932\u0947": 5583,
  "\u2581\u0915\u093e\u092a\u0923\u0940": 5584,
  "\u2581\u0918\u0921\u0942": 5585,
  "\u2581\u0924\u094d\u092f\u093e\u0902\u091a\u094d\u092f\u093e\u0938\u094b\u092c\u0924": 5586,
  "\u2581\u092e\u093e\u0917\u0923\u0940": 5587,
  "\u2581\u092f\u0939\u094b\u0935\u093e\u0915\u0921\u0942\u0928": 5588,
  "\u2581\u0930\u093e\u091c\u093e\u091a\u093e": 5589,
  "\u2581\u0935\u093e\u092a\u0930\u0932\u0947": 5590,
  "Be": 5591,
  "Behold": 5592,
  "great": 5593,
  "\u0932\u094d\u092f\u093e\u0935\u0930": 5594,
  "\u093e\u0902\u0938": 5595,
  "\u094d\u092f\u0941": 5596,
  "\u2581China": 5597,
  "\u2581begins": 5598,
  "\u2581judged": 5599,
  "\u2581modest": 5600,
  "\u2581paid": 5601,
  "\u2581relationships": 5602,
  "\u2581ship": 5603,
  "\u2581station": 5604,
  "\u2581stranger": 5605,
  "\u2581surprise": 5606,
  "\u2581\u0905\u0938\u0924\u0940": 5607,
  "\u2581\u0906\u0932\u0947\u0932\u0940": 5608,
  "\u2581\u0924\u0930\u0941\u0923\u093e\u0902\u0928\u093e": 5609,
  "\u2581\u092a\u093e\u0920\u0940": 5610,
  "\u2581\u092e\u093f": 5611,
  "\u2581\u0935\u093e\u091f\u0932\u0940": 5612,
  "\u2581\u0938\u0930\u0926\u093e\u0930": 5613,
  "U": 5614,
  "ty": 5615,
  "\u090f": 5616,
  "\u0915\u093e\u0930": 5617,
  "\u0932\u094b\u0915": 5618,
  "\u2581approached": 5619,
  "\u2581singing": 5620,
  "\u2581teeth": 5621,
  "\u2581\u091c\u0936\u0940": 5622,
  "\u2581\u0925\u094b\u0921\u094d\u092f\u093e": 5623,
  "\u2581\u0926\u093e\u0935\u0940\u0926\u093e\u0932\u093e": 5624,
  "\u2581\u0927\u0928\u094d\u092f\u0935\u093e\u0926": 5625,
  "\u2581\u0939\u0928\u094d": 5626,
  "\u258127.": 5627,
  "\u2581Esther": 5628,
  "\u2581degree": 5629,
  "\u2581eager": 5630,
  "\u2581victory": 5631,
  "\u2581\u0915\u093e\u0930": 5632,
  "\u2581\u0915\u0941\u0923\u0940": 5633,
  "\u2581\u0917\u093f\u0932\u093e\u0926": 5634,
  "\u2581\u0917\u0947\u0932\u0902": 5635,
  "\u2581\u0928\u093f\u092f\u092e\u093f\u0924\u092a\u0923\u0947": 5636,
  "\u2581\u092e\u0928\u093e\u0935\u0930": 5637,
  "\u2581\u092f\u0930\u0941\u0936\u0932\u0947\u092e\u091a\u094d\u092f\u093e": 5638,
  "\u2581\u0930\u0939\u0938\u094d\u092f": 5639,
  "\u2581\u0932\u093f\u0939\u093e": 5640,
  "\u2581\u0938\u093e\u0915\u094d\u0937\u0940": 5641,
  "\u092a\u093e\u0939\u093e": 5642,
  "\u2581Book": 5643,
  "\u2581Latin": 5644,
  "\u2581accord": 5645,
  "\u2581afflicted": 5646,
  "\u2581difficulties": 5647,
  "\u2581exert": 5648,
  "\u2581figurative": 5649,
  "\u2581girls": 5650,
  "\u2581identified": 5651,
  "\u2581located": 5652,
  "\u2581pour": 5653,
  "\u2581reasoning": 5654,
  "\u2581surface": 5655,
  "\u2581surprised": 5656,
  "\u2581trusted": 5657,
  "\u2581\u0905\u0924\u093f": 5658,
  "\u2581\u0905\u0927\u093f\u0915\u093e\u0927\u093f\u0915": 5659,
  "\u2581\u0905\u0928\u0941\u092f\u093e\u092f\u093e\u0902\u0928\u093e": 5660,
  "\u2581\u090f\u0916\u093e\u0926\u094d\u092f\u093e\u0932\u093e": 5661,
  "\u2581\u0915\u091f": 5662,
  "\u2581\u0918\u091f\u0915": 5663,
  "\u2581\u0926\u0948\u0935\u0924": 5664,
  "\u2581\u0927\u093e\u0935\u093e": 5665,
  "\u2581\u0928\u0935\u093e": 5666,
  "\u2581\u092e\u093f\u0938\u0930\u092e\u0927": 5667,
  "\u2581\u0938\u0941\u0902\u0924\u093e": 5668,
  "\u2581\u0938\u094d\u092e\u093e\u0930\u0915\u0935\u093f\u0927\u0940": 5669,
  "\u00b7": 5670,
  "\u0924\u094d\u0924": 5671,
  "\u092a\u0948\u0915\u0940": 5672,
  "\u0942\u0924": 5673,
  "\u2581Spanish": 5674,
  "\u2581Worship": 5675,
  "\u2581audience": 5676,
  "\u2581companion": 5677,
  "\u2581devour": 5678,
  "\u2581doors": 5679,
  "\u2581dwelt": 5680,
  "\u2581economic": 5681,
  "\u2581peaceful": 5682,
  "\u2581physically": 5683,
  "\u2581pornography": 5684,
  "\u2581reap": 5685,
  "\u2581ruling": 5686,
  "\u2581wash": 5687,
  "\u2581\u0905\u0928\u0947\u0915\u093e\u0902\u0928\u093e": 5688,
  "\u2581\u0915\u094b\u0923\u093e\u091a\u0940": 5689,
  "\u2581\u0918\u094b\u0921\u0947": 5690,
  "\u2581\u091c\u093e\u0924\u093e\u0928\u093e": 5691,
  "\u2581\u0924\u0947\u0925\u0947\u091a": 5692,
  "\u2581\u0927\u0915\u094d\u0915\u093e": 5693,
  "\u2581\u0928\u091c\u0930": 5694,
  "\u2581\u092a\u094d\u0930\u093e\u0930\u094d\u0925\u0928\u0947": 5695,
  "\u2581\u092c\u0902\u0921": 5696,
  "\u2581\u092c\u093e\u0902\u0927\u0942\u0928": 5697,
  "\u2581\u0936\u093f\u0915\u0935\u0924\u0947": 5698,
  "\u2581\u0938\u0947\u0935\u0947": 5699,
  "\u0924\u0941\u092e\u091a\u094d\u092f\u093e": 5700,
  "\u0932\u0947\u0916\u093e": 5701,
  "\u258126]": 5702,
  "\u25817]": 5703,
  "\u2581Abram": 5704,
  "\u2581Upon": 5705,
  "\u2581corruption": 5706,
  "\u2581crime": 5707,
  "\u2581spouse": 5708,
  "\u2581\u0905\u0936\u093e\u0930\u093f\u0924\u0940\u0928\u0947": 5709,
  "\u2581\u0915\u0943\u0924\u091c\u094d\u091e\u0924\u093e": 5710,
  "\u2581\u0916\u094b\u091f\u0902": 5711,
  "\u2581\u091c\u093e\u0924\u093e": 5712,
  "\u2581\u0924\u094d\u092f\u093e\u091a\u094d\u092f\u093e\u0938\u094b\u092c\u0924": 5713,
  "\u2581\u092e\u0902\u0921\u0933": 5714,
  "\u2581\u092e\u0939\u093f\u0928\u0947": 5715,
  "\u2581\u0930\u091a\u0928\u093e": 5716,
  "\u2581\u096a\u0969": 5717,
  "\u2581advance": 5718,
  "\u2581magnitude": 5719,
  "\u2581sad": 5720,
  "\u2581sorrow": 5721,
  "\u2581terms": 5722,
  "\u2581yea": 5723,
  "\u2581\u0906\u0924\u094d\u092e\u0935\u093f\u0936\u094d": 5724,
  "\u2581\u0906\u092e\u094d\u0939\u093e": 5725,
[...]
